{
  "</s>": 0,
  "<unk>": 1,
  ".": 2,
  ",": 3,
  "?": 4,
  "'": 5,
  "\u2581the": 6,
  "\u2581I": 7,
  "\u2581-": 8,
  "s": 9,
  "\u2581you": 10,
  "\u2581yang": 11,
  "\u2581to": 12,
  "!": 13,
  "-": 14,
  "\u2581a": 15,
  "\u2581of": 16,
  "\u2581and": 17,
  "\u2581dan": 18,
  "\u2581di": 19,
  "...": 20,
  "t": 21,
  "\u2581Aku": 22,
  "\u2581tidak": 23,
  "\u2581it": 24,
  "\u2581that": 25,
  "\u2581itu": 26,
  "\u2581in": 27,
  "\u2581\"": 28,
  "\u2581aku": 29,
  "\u2581is": 30,
  "\u2581akan": 31,
  "\u2581kau": 32,
  "\u2581ini": 33,
  "\u2581mereka": 34,
  "\u2581You": 35,
  ")": 36,
  "\u2581(": 37,
  "\u2581me": 38,
  "\u2581untuk": 39,
  "\u2581for": 40,
  "\u2581dengan": 41,
  "\u2581kita": 42,
  "\u2581orang": 43,
  "\u2581on": 44,
  "\u2581dari": 45,
  "\u2581be": 46,
  "\u2581have": 47,
  "m": 48,
  "nya": 49,
  "\u2581not": 50,
  "\u2581this": 51,
  "\u2581your": 52,
  "\u2581Kau": 53,
  "\u2581dia": 54,
  "\u2581we": 55,
  "\u2581are": 56,
  "re": 57,
  "\u2581was": 58,
  "\u2581with": 59,
  "\u2581bisa": 60,
  "\u2581apa": 61,
  "\u2581my": 62,
  "\u2581do": 63,
  "\u2581ke": 64,
  "\u2581Anda": 65,
  "\u2581What": 66,
  "\u2581ada": 67,
  "\u2581It": 68,
  "\u2581know": 69,
  "\u2581Apa": 70,
  "\u2581tahu": 71,
  "\u2581can": 72,
  "\u2581he": 73,
  "\u2581Allah": 74,
  "\u2581We": 75,
  "\u2581what": 76,
  "\u2581And": 77,
  "\u2581tak": 78,
  "\u2581they": 79,
  "\u2581Dia": 80,
  "\u2581adalah": 81,
  "\u2581dalam": 82,
  "\u2581will": 83,
  ":": 84,
  "\u2581saya": 85,
  "\u2581Oh": 86,
  "\u2581all": 87,
  "\u2581The": 88,
  "\u2581don": 89,
  "\u2581Dan": 90,
  "\u2581He": 91,
  "\u2581him": 92,
  "\u2581kamu": 93,
  "\u2581Tidak": 94,
  "\u2581here": 95,
  "\u2581out": 96,
  "\u2581them": 97,
  "\u2581just": 98,
  "ll": 99,
  "\u2581harus": 100,
  "\u2581like": 101,
  "\u2581No": 102,
  "\u2581up": 103,
  "\u2581kepada": 104,
  "\u2581from": 105,
  "\u2581about": 106,
  "\u2581kami": 107,
  "\u2581there": 108,
  "\u2581saja": 109,
  "\u2581telah": 110,
  "\u2581right": 111,
  "\u2581one": 112,
  "\u2581Ya": 113,
  "\u2581at": 114,
  "\u2581get": 115,
  "\u2581go": 116,
  "\u2581pada": 117,
  "d": 118,
  "\u2581kalian": 119,
  "\u2581who": 120,
  ".\"": 121,
  "\u2581seperti": 122,
  "\u2581so": 123,
  "\u2581his": 124,
  "\u2581as": 125,
  "\u2581sudah": 126,
  "an": 127,
  "\u2581ingin": 128,
  "\u2581but": 129,
  "\u2581no": 130,
  "\u2581Ini": 131,
  "\u2581": 132,
  "kan": 133,
  "\u2581baik": 134,
  "mu": 135,
  "\u2581Yeah": 136,
  "\u2581That": 137,
  "\u2581Kami": 138,
  ";": 139,
  "\u2581her": 140,
  "orang": 141,
  "\u2581lebih": 142,
  "ve": 143,
  "\u2581if": 144,
  "\u2581bahwa": 145,
  "\u2581semua": 146,
  "\u2581But": 147,
  "\u2581\u266a": 148,
  "\u2581us": 149,
  "\u2581sini": 150,
  "\u2581lagi": 151,
  "\u2581'": 152,
  "\u2581hanya": 153,
  "\u2581pergi": 154,
  "\u2581Itu": 155,
  "\u2581want": 156,
  "\u2581an": 157,
  "\u2581got": 158,
  "\u2581...": 159,
  "\u2581So": 160,
  "\u2581think": 161,
  "\u2581Kita": 162,
  "ku": 163,
  "\u2581atau": 164,
  "\u2581God": 165,
  "\u2581benar": 166,
  "\u2581were": 167,
  "\u2581dapat": 168,
  "a": 169,
  "\u2581or": 170,
  "\u2581hal": 171,
  "\u2581now": 172,
  "lah": 173,
  "\u2581their": 174,
  "\u2581see": 175,
  "\u2581karena": 176,
  "\u2581menjadi": 177,
  "\u2581by": 178,
  "\u2581Tapi": 179,
  "\u2581time": 180,
  "\u2581punya": 181,
  "\u2581juga": 182,
  "\u2581our": 183,
  "ing": 184,
  "\u2581when": 185,
  "\u2581did": 186,
  "\u2581sangat": 187,
  "\u2581back": 188,
  "\u2581Hey": 189,
  "\u2581A": 190,
  "\u2581satu": 191,
  "\u2581has": 192,
  "\u2581hari": 193,
  "\u2581had": 194,
  "\u2581/": 195,
  "\u2581she": 196,
  "\u2581This": 197,
  "\u2581would": 198,
  "\u2581jika": 199,
  "\u2581Saya": 200,
  "\u2581Mereka": 201,
  "\u2581been": 202,
  "\u2581bukan": 203,
  "i": 204,
  "\u2581They": 205,
  "\u2581going": 206,
  "\u2581good": 207,
  "\u2581[": 208,
  "\u2581gonna": 209,
  "\u2581?": 210,
  "\u2581lakukan": 211,
  "\u2581tentang": 212,
  "\u2581people": 213,
  "\u2581lain": 214,
  "\u2581Well": 215,
  "\u2581come": 216,
  "\u2581banyak": 217,
  "\u2581sekarang": 218,
  "\u2581tapi": 219,
  "\u2581pernah": 220,
  "\u2581need": 221,
  "\u2581man": 222,
  "\u2581anak": 223,
  "\u2581How": 224,
  "b": 225,
  "\u2581.": 226,
  "\u2581seorang": 227,
  "\u2581said": 228,
  "\u2581mau": 229,
  "\u2581datang": 230,
  "\u2581say": 231,
  "\u2581ia": 232,
  "\u2581melihat": 233,
  "\u2581some": 234,
  "\u2581kembali": 235,
  "\u2581sesuatu": 236,
  "\u2581Jadi": 237,
  "\u2581way": 238,
  "\u2581down": 239,
  "ed": 240,
  "\u2581melakukan": 241,
  "\u2581!": 242,
  "\u2581more": 243,
  "\u2581how": 244,
  "\u2581take": 245,
  "\"": 246,
  "\u2581If": 247,
  "\u2581then": 248,
  "\u2581those": 249,
  "\u2581terjadi": 250,
  "]": 251,
  "\u2581Apakah": 252,
  "\u2581She": 253,
  "\u2581could": 254,
  "\u2581Bagaimana": 255,
  "\u2581Okay": 256,
  "\u2581Come": 257,
  "\u2581mungkin": 258,
  "\u2581make": 259,
  "\u2581Yes": 260,
  "\u2581Why": 261,
  "\u2581kasih": 262,
  "\u2581sebagai": 263,
  "\u2581should": 264,
  "\u2581tahun": 265,
  "\u2581Jangan": 266,
  "\u2581Jika": 267,
  "\u2581saat": 268,
  "\u2581waktu": 269,
  "\u2581tempat": 270,
  "\u2581over": 271,
  "\u2581There": 272,
  "\u2581membuat": 273,
  "\u2581Let": 274,
  "\u2581Di": 275,
  "\u2581oleh": 276,
  "\u2581begitu": 277,
  "\u2581All": 278,
  "\u2581Ada": 279,
  "y": 280,
  "\u2581something": 281,
  "\u2581only": 282,
  "\u2581Do": 283,
  "Nya": 284,
  "\u2581sendiri": 285,
  "\u2581really": 286,
  "\u2581let": 287,
  "n": 288,
  "\u2581too": 289,
  "\u2581memiliki": 290,
  "\u2581didn": 291,
  "\u2581Don": 292,
  "\u2581tell": 293,
  "\u2581atas": 294,
  "\u2581besar": 295,
  "\u2581bagi": 296,
  "\u2581life": 297,
  "\u2581never": 298,
  "er": 299,
  "\u2581My": 300,
  "\u2581into": 301,
  "\u2581mati": 302,
  "\u2581am": 303,
  "\u2581masih": 304,
  "\u2581hidup": 305,
  "\u2581mengatakan": 306,
  "\u2581love": 307,
  "\u2581Tuhan": 308,
  "\u2581Ayo": 309,
  "\u2581sana": 310,
  "I": 311,
  "\u2581off": 312,
  "\u2581help": 313,
  "\u2581sedang": 314,
  "\u2581sekali": 315,
  "\u2581beberapa": 316,
  "\u2581mana": 317,
  "\u2581jadi": 318,
  "\u2581sama": 319,
  "\u2581any": 320,
  "\u2581In": 321,
  "\u2581baru": 322,
  "--": 323,
  "\u2581little": 324,
  "e": 325,
  "\u2581bilang": 326,
  "\u2581doing": 327,
  "\u2581malam": 328,
  "\u2581than": 329,
  "\u2581diri": 330,
  "\u2581day": 331,
  "\u2581even": 332,
  "\u2581find": 333,
  "\u2581where": 334,
  "\u2581lalu": 335,
  "\u2581before": 336,
  "\u2581look": 337,
  "\u2581two": 338,
  "\u2581which": 339,
  "\u2581Hei": 340,
  "\u2581mean": 341,
  "\u2581Yang": 342,
  "\u2581keluar": 343,
  "in": 344,
  "benar": 345,
  "\u2581okay": 346,
  "\u2581sebuah": 347,
  "\u2581Now": 348,
  "\u2581pun": 349,
  "\u2581these": 350,
  "\u2581bagaimana": 351,
  "\u2581other": 352,
  "\u2581thing": 353,
  "\u2581give": 354,
  "\u2581much": 355,
  "\u2581sampai": 356,
  "\u2581very": 357,
  "\u2581perlu": 358,
  "\u2581because": 359,
  "\u2581siapa": 360,
  "\u2581Terima": 361,
  "\u2581dunia": 362,
  "\u2581men": 363,
  "\u2581why": 364,
  "\u2581Where": 365,
  "\u2581rumah": 366,
  "\u2581away": 367,
  "\u2581Just": 368,
  "\u2581Who": 369,
  "\u2581manusia": 370,
  "\u2581Kamu": 371,
  "\u2581salah": 372,
  "\u2581work": 373,
  "\u2581para": 374,
  "\u2581kalau": 375,
  "\u2581first": 376,
  "\u2581Baiklah": 377,
  "\u2581Tak": 378,
  "\u2581things": 379,
  "\u2581Are": 380,
  "\u2581ber": 381,
  "\u2581ketika": 382,
  "\u2581made": 383,
  "\u2581berkata": 384,
  "\u2581Lord": 385,
  "\u2581Sekarang": 386,
  "\u2581may": 387,
  "\u2581ya": 388,
  "\u2581still": 389,
  "\u2581Go": 390,
  "\u2581Mr": 391,
  "\u2581jalan": 392,
  "\u2581shall": 393,
  "\u2581well": 394,
  "\u2581masuk": 395,
  "\u2581When": 396,
  "\u2581lihat": 397,
  "\u2581selalu": 398,
  "\u2581..": 399,
  "\u2581Yehuwa": 400,
  "\u2581berada": 401,
  "\u2581sorry": 402,
  "\u2581dua": 403,
  "\u2581maka": 404,
  "ly": 405,
  "\u2581bagus": 406,
  "\u2581world": 407,
  "\u2581believe": 408,
  "\u2581bersama": 409,
  "\u2581again": 410,
  "\u2581Get": 411,
  "\u2581home": 412,
  "\u2581Kenapa": 413,
  "\u2581after": 414,
  "\u2581Karena": 415,
  "\u2581years": 416,
  "\u2581Jehovah": 417,
  "\u2581mendapatkan": 418,
  "\u2581Siapa": 419,
  "\u2581Your": 420,
  "\u2581Look": 421,
  "./": 422,
  "\u2581cara": 423,
  "apa": 424,
  "\\": 425,
  "\u2581yg": 426,
  "\u2581anything": 427,
  "k": 428,
  "\u2581call": 429,
  "\u2581Then": 430,
  "\u2581must": 431,
  "\u2581name": 432,
  "\u2581pikir": 433,
  "\u2581masalah": 434,
  "\u2581night": 435,
  "dan": 436,
  "\u2581Oke": 437,
  "\u2581,": 438,
  "\u2581Thank": 439,
  "\u2581pasti": 440,
  "\u2581antara": 441,
  "\u2581sure": 442,
  "\u2581tinggal": 443,
  "S": 444,
  "\u2581padaku": 445,
  "\u2581does": 446,
  "\u2581merasa": 447,
  "\u2581jangan": 448,
  "\u2581Not": 449,
  "\u2581melakukannya": 450,
  "\u2581ku": 451,
  "o": 452,
  "\u2581sedikit": 453,
  "r": 454,
  "\u2581place": 455,
  "baik": 456,
  "\u2581told": 457,
  "\u2581long": 458,
  "\u2581belum": 459,
  "\u2581talk": 460,
  "\u2581put": 461,
  "\u2581suka": 462,
  "l": 463,
  "\u2581kali": 464,
  "\u2581sebelum": 465,
  "\u2581thought": 466,
  "\u2581Orang": 467,
  "\u2581better": 468,
  "\u2581kecil": 469,
  "\u2581For": 470,
  "\u2581Mengapa": 471,
  "\u2581katakan": 472,
  "\u2581Mungkin": 473,
  "\u2581hati": 474,
  "\u2581disini": 475,
  "\u2581percaya": 476,
  "\u2581mengambil": 477,
  "\u2581air": 478,
  "\u2581%": 479,
  "\u2581Can": 480,
  "\u2581menemukan": 481,
  "\u2581wanita": 482,
  "\u2581ever": 483,
  "\u2581selama": 484,
  "\u2581#": 485,
  "\u2581suatu": 486,
  "\u2581won": 487,
  "\u2581lama": 488,
  "\u2581kata": 489,
  "\u25811": 490,
  "\u2581setelah": 491,
  "\u2581tetap": 492,
  "\u2581bicara": 493,
  "\u2581last": 494,
  "\u2581S": 495,
  "\u2581bekerja": 496,
  "\u2581keep": 497,
  "\u2581around": 498,
  "\u2581cukup": 499,
  "\u2581many": 500,
  "\u2581Please": 501,
  "\u2581kemudian": 502,
  "\u2581setiap": 503,
  "\u2581teman": 504,
  "\u2581pria": 505,
  "\u2581came": 506,
  "\u2581memberi": 507,
  "\u2581please": 508,
  "\u2581through": 509,
  "\u2581own": 510,
  "\u2581Uh": 511,
  "\u2581seseorang": 512,
  "\u2581berpikir": 513,
  "\u2581Good": 514,
  "\u2581pertama": 515,
  "\u2581great": 516,
  "\u2581guys": 517,
  "\u2581terhadap": 518,
  "\u2581being": 519,
  "\u2581tetapi": 520,
  "\u2581mulai": 521,
  "\u2581yakin": 522,
  "\u2581memberikan": 523,
  "\u2581done": 524,
  "\u2581Ia": 525,
  "\u2581kan": 526,
  "\u2581anda": 527,
  "\u2581wrong": 528,
  "\u2581kill": 529,
  "\u2581semuanya": 530,
  "\u2581every": 531,
  "\u2581new": 532,
  "\u2581always": 533,
  "Dan": 534,
  "u": 535,
  "\u25812": 536,
  "\u2581makan": 537,
  "\u2581Jesus": 538,
  "\u2581Maha": 539,
  "\u2581nothing": 540,
  "\u2581mengerti": 541,
  "\u2581Hanya": 542,
  "\u2581bertemu": 543,
  "\u2581secara": 544,
  "\u2581agar": 545,
  "\u2581feel": 546,
  "\u2581luar": 547,
  "\u2581tanpa": 548,
  "\u2581mu": 549,
  "\u2581mencari": 550,
  "\u2581To": 551,
  "\u2581membunuh": 552,
  "\u2581membawa": 553,
  "\u2581Untuk": 554,
  "al": 555,
  "\u2581takut": 556,
  "\u2581might": 557,
  "\u2581everything": 558,
  "\u2581leave": 559,
  "A": 560,
  "\u2581also": 561,
  "\u2581guy": 562,
  "\u2581bumi": 563,
  "\u2581Baik": 564,
  "\u2581father": 565,
  "\u2581yakni": 566,
  "\u2581buruk": 567,
  "\u2581found": 568,
  "\u2581sir": 569,
  "\u2581another": 570,
  "\u2581bahkan": 571,
  "\u2581son": 572,
  "\u2581saw": 573,
  "\u2581dead": 574,
  "\u2581Did": 575,
  "\u2581His": 576,
  "\u2581terlalu": 577,
  "\u2581left": 578,
  "\u2581Maaf": 579,
  "\u2581Ayah": 580,
  "\u2581membantu": 581,
  "\u2581stop": 582,
  "\u2581beriman": 583,
  "\u2581padamu": 584,
  "\u2581apakah": 585,
  "\u2581hear": 586,
  "\u2581kota": 587,
  "\u2581doesn": 588,
  "\u2581Alkitab": 589,
  "\u2581kind": 590,
  "?\"": 591,
  "\u2581money": 592,
  "\u2581yaitu": 593,
  "\u2581old": 594,
  "\u2581understand": 595,
  "\u2581house": 596,
  "\u2581family": 597,
  "\u2581coming": 598,
  "\u2581Yesus": 599,
  "man": 600,
  "\u2581se": 601,
  "\u2581Semua": 602,
  "\u2581One": 603,
  "\u2581Ah": 604,
  "\u2581bagian": 605,
  "\u2581happened": 606,
  "2": 607,
  "\u2581such": 608,
  "\u2581terus": 609,
  "\u2581As": 610,
  "di": 611,
  "\u2581lot": 612,
  "\u2581Here": 613,
  "\u2581Hi": 614,
  "\u2581bad": 615,
  "\u2581Tunggu": 616,
  "th": 617,
  "\u2581uang": 618,
  "\u2581sesungguhnya": 619,
  "\u2581Pak": 620,
  "\u2581cepat": 621,
  "\u2581Tentu": 622,
  "\u2581hell": 623,
  "\u2581Dengan": 624,
  "\u2581jam": 625,
  "4": 626,
  "\u2581O": 627,
  "\u2581la": 628,
  "\u2581most": 629,
  "\u2581Lalu": 630,
  "\u2581same": 631,
  "\u2581yeah": 632,
  "\u2581girl": 633,
  "\u2581nama": 634,
  "\u2581mencoba": 635,
  "\u2581wanted": 636,
  "\u2581someone": 637,
  "\u2581uh": 638,
  "\u2581ask": 639,
  "\u2581daripada": 640,
  "\u2581berbicara": 641,
  "\u2581course": 642,
  "\u2581Kalian": 643,
  "\u2581s": 644,
  "\u2581fucking": 645,
  "\u2581mengetahui": 646,
  "\u2581masa": 647,
  "\u2581Bible": 648,
  "\u2581segala": 649,
  "\u2581earth": 650,
  "h": 651,
  "za": 652,
  "\u2581three": 653,
  "\u2581Lihat": 654,
  "\u2581Hello": 655,
  "ah": 656,
  "\u2581best": 657,
  "\u2581today": 658,
  "}": 659,
  "\u2581sehingga": 660,
  "\u2581{\\": 661,
  "\u2581together": 662,
  "\u2581boleh": 663,
  "\u2581show": 664,
  "\u2581mendengar": 665,
  "\u2581care": 666,
  "\u2581used": 667,
  "\u2581butuh": 668,
  "\u2581mendapat": 669,
  "\u00e2": 670,
  "\u2581Maka": 671,
  "\u2581paling": 672,
  "\u2581artinya": 673,
  "\u2581Bukan": 674,
  "\u2581else": 675,
  "\u2581big": 676,
  "\u2581Because": 677,
  "\u2581enough": 678,
  "\u2581mother": 679,
  "\u2581biasa": 680,
  "\u2581Seperti": 681,
  "\u2581bawah": 682,
  "\u2581kehidupan": 683,
  "\u2581talking": 684,
  "\u2581Sudah": 685,
  "\u2581remember": 686,
  "\u2581rasa": 687,
  "\u2581heart": 688,
  "\u2581sebenarnya": 689,
  "\u2581kenapa": 690,
  "\u2581depan": 691,
  "\u2581yourself": 692,
  "\u2581Al": 693,
  "\u2581real": 694,
  "\u2581against": 695,
  "\u2581car": 696,
  ",\"": 697,
  "\u25813": 698,
  "\u2581friend": 699,
  "\u2581use": 700,
  "\u2581looking": 701,
  "es": 702,
  "\u2581keluarga": 703,
  "\u258110": 704,
  "\u2581live": 705,
  "\u2581tua": 706,
  "\u2581dirimu": 707,
  "\u2581Selamat": 708,
  "\u2581stay": 709,
  "\u2581fine": 710,
  "\u2581tangan": 711,
  "anak": 712,
  "\u2581gadis": 713,
  "\u2581tersebut": 714,
  "\u2581Ibu": 715,
  "\u2581jauh": 716,
  "\u2581kafir": 717,
  "\u2581Kalau": 718,
  "\u2581shit": 719,
  "\u2581went": 720,
  "\u2581tidur": 721,
  "\u2581denganmu": 722,
  "\u2581called": 723,
  "\u2581wait": 724,
  "na": 725,
  "\u2581without": 726,
  "\u2581sakit": 727,
  "\u2581trying": 728,
  "\u2581Mari": 729,
  "\u2581kaum": 730,
  "\u2581Yah": 731,
  "to": 732,
  "\u2581seluruh": 733,
  "\u2581dulu": 734,
  "\u2581Wait": 735,
  "\u2581end": 736,
  "\u2581mind": 737,
  "\u2581penting": 738,
  "\u2581while": 739,
  "\u2581M": 740,
  "\u2581says": 741,
  "\u2581C": 742,
  "\u2581lainnya": 743,
  "\u2581Maybe": 744,
  "\u2581already": 745,
  "\u2581apapun": 746,
  "\u2581took": 747,
  "fal": 748,
  "\u2581Right": 749,
  "\u2581senang": 750,
  "\u2581Sesungguhnya": 751,
  "\u2581seen": 752,
  "\u2581getting": 753,
  "\u2581saying": 754,
  "\u2581takkan": 755,
  "g": 756,
  "\u2581Akan": 757,
  "\u2581pekerjaan": 758,
  "\u2581die": 759,
  "\u2581Pada": 760,
  "yang": 761,
  "\u2581menggunakan": 762,
  "cH": 763,
  "\u2581Dr": 764,
  "\u2581John": 765,
  "\u2581berhenti": 766,
  "\u2581isn": 767,
  "\u2581bring": 768,
  "\u2581Our": 769,
  "\u2581P": 770,
  "\u2581days": 771,
  "\u2581true": 772,
  "\u2581terakhir": 773,
  "f": 774,
  "\u2581segera": 775,
  "\u2581head": 776,
  "p": 777,
  "\u2581hand": 778,
  "\u2581heard": 779,
  "\u2581brother": 780,
  "on": 781,
  "the": 782,
  "\u2581truth": 783,
  "\u2581upon": 784,
  "\u2581next": 785,
  "\u2581terlihat": 786,
  "\u2581gila": 787,
  "\u2581pulang": 788,
  "\u2581mengapa": 789,
  "\u2581yet": 790,
  "\u2581padanya": 791,
  "\u2581--": 792,
  "\u2581Benar": 793,
  "\u2581dengar": 794,
  "\u2581meninggalkan": 795,
  "\u2581kepadamu": 796,
  "\u2581Stop": 797,
  "\u2581turn": 798,
  "\u2581OK": 799,
  "\u2581minta": 800,
  "/": 801,
  "\u2581Hal": 802,
  "ke": 803,
  "\u2581bulan": 804,
  "\u2581maaf": 805,
  "\u2581knew": 806,
  "\u2581problem": 807,
  "\u2581killed": 808,
  "\u2581Ke": 809,
  "\u258120": 810,
  "\u2581Or": 811,
  "\u2581sent": 812,
  "\u2581try": 813,
  "\u2581each": 814,
  "\u2581boy": 815,
  "\u2581person": 816,
  "sungguh": 817,
  "\u2581berhasil": 818,
  "\u2581tiga": 819,
  "T": 820,
  "\u2581part": 821,
  "\u2581move": 822,
  "\u2581berarti": 823,
  "\u2581sebelumnya": 824,
  "E": 825,
  "\u2581memang": 826,
  "\u2581hard": 827,
  "Se": 828,
  "\u2581children": 829,
  "\u2581kebenaran": 830,
  "\u2581fuck": 831,
  "\u2581jelas": 832,
  "\u2581death": 833,
  "\u2581ingat": 834,
  "\u2581pula": 835,
  "\u2581mobil": 836,
  "se": 837,
  "\u2581Dengar": 838,
  "\u2581re": 839,
  "\u2581job": 840,
  "\u2581until": 841,
  "\u2581both": 842,
  "\u2581whole": 843,
  "\u2581Take": 844,
  "\u2581water": 845,
  "\u2581berjalan": 846,
  "\u2581face": 847,
  "\u2581mata": 848,
  "\u2581wasn": 849,
  "\u2581kedua": 850,
  "ya": 851,
  "\u2581Have": 852,
  "\u2581Of": 853,
  "\u2581siap": 854,
  "\u2581Tolong": 855,
  "\u2581sayang": 856,
  "\u2581_": 857,
  "C": 858,
  "\u2581matter": 859,
  "\u2581*": 860,
  "\u2581New": 861,
  "\u2581menerima": 862,
  "\u2581Israel": 863,
  "\u2581set": 864,
  "\u2581ayat": 865,
  "us": 866,
  "\u2581si": 867,
  "\u2581D": 868,
  "\u2581ayah": 869,
  "\u2581baby": 870,
  "\u2581Bagus": 871,
  "\u2581few": 872,
  "\u2581E": 873,
  "\u2581B": 874,
  "\u2581wanna": 875,
  "\u2581seharusnya": 876,
  "\u2581dekat": 877,
  "\u2581demikian": 878,
  "hal": 879,
  "\u2581idea": 880,
  "la": 881,
  "\u2581menunjukkan": 882,
  "\u2581gotta": 883,
  "\u2581meet": 884,
  "\u2581Ayolah": 885,
  "\u2581wife": 886,
  "ka": 887,
  "le": 888,
  "\u2581mempunyai": 889,
  "\u2581keras": 890,
  "\u2581kehilangan": 891,
  "\u2581berdua": 892,
  "\u2581gone": 893,
  "\u2581gave": 894,
  "sa": 895,
  "\u2581meminta": 896,
  "\u2581Tetapi": 897,
  "\u2581eyes": 898,
  "\u2581room": 899,
  "\u2581melalui": 900,
  "\u2581lost": 901,
  "at": 902,
  "\u2581sungguh": 903,
  "\u2581Sir": 904,
  "\u2581Ketika": 905,
  "\u2581woman": 906,
  "D": 907,
  "q": 908,
  "\u2581year": 909,
  "\u2581Sorry": 910,
  "\u2581G": 911,
  "\u2581friends": 912,
  "\u2581Me": 913,
  "\u25815": 914,
  "\u2581school": 915,
  "\u2581.\"": 916,
  "\u2581under": 917,
  "\u2581start": 918,
  "\u2581actually": 919,
  "\u2581ikut": 920,
  "\u2581bertanya": 921,
  "\u2581Thanks": 922,
  "O": 923,
  "\u2581ago": 924,
  "en": 925,
  "\u2581means": 926,
  "\u2581alone": 927,
  "\u2581neraka": 928,
  "\u2581Kurasa": 929,
  "\u2581T": 930,
  "\u2581anyone": 931,
  "\u2581knows": 932,
  "P": 933,
  "\u2581ready": 934,
  "\u2581polisi": 935,
  "\u2581melihatnya": 936,
  "\u2581ibu": 937,
  "\u2581Halo": 938,
  "\u2581ye": 939,
  "\u2581menunggu": 940,
  "\u2581pagi": 941,
  "\u2581Saksi": 942,
  "\u2581Saudara": 943,
  "\u2581langit": 944,
  "\u2581Nabi": 945,
  "1": 946,
  "\u2581Dimana": 947,
  "ri": 948,
  "\u2581Atau": 949,
  "\u2581bodoh": 950,
  "\u2581run": 951,
  "\u2581Tuan": 952,
  "\u2581between": 953,
  "\u2581Maksudku": 954,
  "\u2581penuh": 955,
  "ers": 956,
  "\u2581unto": 957,
  "\u2581keadaan": 958,
  "\u2581kuat": 959,
  "am": 960,
  "\u2581terbaik": 961,
  "\u2581far": 962,
  "\u2581become": 963,
  "\u2581hope": 964,
  "\u2581serta": 965,
  "\u2581Saat": 966,
  "\u2581nice": 967,
  "or": 968,
  "\u2581itulah": 969,
  "c": 970,
  "\u2581Hai": 971,
  "\u2581maybe": 972,
  "\u2581kepadanya": 973,
  "\u2581i": 974,
  "\u2581sekitar": 975,
  "un": 976,
  "\u2581morning": 977,
  "\u2581khawatir": 978,
  "\u2581dilakukan": 979,
  "\u2581once": 980,
  "\u2581per": 981,
  "\u2581Setelah": 982,
  "\u2581Will": 983,
  "\u2581peduli": 984,
  "\u2581tepat": 985,
  "\u2581power": 986,
  "mana": 987,
  "\u2581nanti": 988,
  "pun": 989,
  "\u2581Dad": 990,
  "\u2581tiba": 991,
  "Aku": 992,
  "\u2581dirinya": 993,
  "\u2581Wow": 994,
  "\u2581untukmu": 995,
  "\u2581Dalam": 996,
  "\u2581times": 997,
  "\u2581Like": 998,
  "\u2581mudah": 999,
  "\u2581bit": 1000,
  "ha": 1001,
  "\u2581hands": 1002,
  "ta": 1003,
  "\u2581tanah": 1004,
  "\u2581barang": 1005,
  "B": 1006,
  "\u2581cinta": 1007,
  "\u2581others": 1008,
  "\u2581Satu": 1009,
  "\u2581tadi": 1010,
  "\u2581word": 1011,
  "\u2581myself": 1012,
  "\u2581oke": 1013,
  "\u2581minum": 1014,
  "\u2581See": 1015,
  "\u2581Tell": 1016,
  "\u2581buku": 1017,
  "\u2581Itulah": 1018,
  "z": 1019,
  "\u2581dimana": 1020,
  "\u2581pretty": 1021,
  "\u2581wouldn": 1022,
  "\u2581Ra": 1023,
  "ma": 1024,
  "\u2581terima": 1025,
  "\u258115": 1026,
  "\u2581menit": 1027,
  "\u2581Sam": 1028,
  "\u2581among": 1029,
  "\u2581alasan": 1030,
  "is": 1031,
  "\u2581fight": 1032,
  "\u2581soal": 1033,
  "\u2581Nah": 1034,
  "\u2581Namun": 1035,
  "\u2581huh": 1036,
  "\u2581perbuatan": 1037,
  "\u2581makanan": 1038,
  "\u2581merupakan": 1039,
  "\u2581aman": 1040,
  "\u2581sekolah": 1041,
  "\u2581At": 1042,
  "\u2581open": 1043,
  "\u2581Him": 1044,
  "\u2581Ha": 1045,
  "\u2581berbeda": 1046,
  "\u2581sebentar": 1047,
  "akan": 1048,
  "\u2581petunjuk": 1049,
  "\u2581saudara": 1050,
  "si": 1051,
  "\u2581play": 1052,
  "\u2581case": 1053,
  "\u2581blood": 1054,
  "\u2581second": 1055,
  "\u2581selesai": 1056,
  "\u2581soon": 1057,
  "\u2581berbuat": 1058,
  "\u2581duduk": 1059,
  "\u2581guess": 1060,
  "\u2581negeri": 1061,
  "\u2581Give": 1062,
  "\u2581door": 1063,
  "\"?": 1064,
  "\u2581sulit": 1065,
  "\u2581On": 1066,
  "\u2581brought": 1067,
  "\u2581change": 1068,
  "kah": 1069,
  "\u2581eat": 1070,
  "\u2581Say": 1071,
  "\u2581Um": 1072,
  "\u2581wants": 1073,
  "\u2581menyelamatkan": 1074,
  "\u2581tinggi": 1075,
  "\u2581whom": 1076,
  "\u2581rasul": 1077,
  "\u2581laki": 1078,
  "\u2581listen": 1079,
  "\u2581menarik": 1080,
  "\u2581maksudnya": 1081,
  "\u2581though": 1082,
  "wa": 1083,
  "\u2581hampir": 1084,
  "\u2581hebat": 1085,
  "\u2581happy": 1086,
  "\u2581number": 1087,
  "\u2581able": 1088,
  "\u2581since": 1089,
  "\u2581Be": 1090,
  "\u2581pintu": 1091,
  "\u2581perintah": 1092,
  "\u2581aneh": 1093,
  "\u2581kabar": 1094,
  "\u2581tentu": 1095,
  "x": 1096,
  "\u2581belajar": 1097,
  "\u2581Kemudian": 1098,
  "\u2581K": 1099,
  "\u2581different": 1100,
  "\u2581tau": 1101,
  "\u2581tunggu": 1102,
  "\u2581given": 1103,
  "\u2581body": 1104,
  "_": 1105,
  "em": 1106,
  "\u2581kesempatan": 1107,
  "\u2581muda": 1108,
  "\u2581agama": 1109,
  "\u2581Tn": 1110,
  "\u2581inside": 1111,
  "ji": 1112,
  "\u2581Katakan": 1113,
  "\u2581save": 1114,
  "\u2581close": 1115,
  "\u2581hurt": 1116,
  "\u2581ter": 1117,
  "\u2581fear": 1118,
  "\u2581Sial": 1119,
  "\u2581bergerak": 1120,
  "\u2581selain": 1121,
  "\u2581Jack": 1122,
  "\u2581clear": 1123,
  "\u2581Ma": 1124,
  "\u2581bermain": 1125,
  "fs": 1126,
  "\u2581everyone": 1127,
  "\u2581hold": 1128,
  "\u2581tanda": 1129,
  "ki": 1130,
  "\u2581David": 1131,
  "\u2581hingga": 1132,
  "\u2581later": 1133,
  "\u2581working": 1134,
  "\u2581point": 1135,
  "\u2581fire": 1136,
  "\u2581surga": 1137,
  "\u2581berikan": 1138,
  "\u2581mengikuti": 1139,
  "\u2581berubah": 1140,
  "\u2581Ku": 1141,
  "\u2581happen": 1142,
  "\u2581With": 1143,
  "\u2581Dari": 1144,
  "\u2581asked": 1145,
  "da": 1146,
  "\u2581Muhammad": 1147,
  "laki": 1148,
  "ra": 1149,
  "\u2581thinking": 1150,
  "me": 1151,
  "\u2581worry": 1152,
  "\u2581side": 1153,
  "\u2581having": 1154,
  "\u2581comes": 1155,
  "\u2581phone": 1156,
  "\u2581kepala": 1157,
  "\u2581sebagian": 1158,
  "\u2581These": 1159,
  "it": 1160,
  "\u2581deal": 1161,
  "\u2581human": 1162,
  "\u2581Anak": 1163,
  "\u2581Cepat": 1164,
  "\u2581Really": 1165,
  "\u2581nyata": 1166,
  "\u2581inginkan": 1167,
  "\u2581jatuh": 1168,
  "\u2581trust": 1169,
  "\u2581supaya": 1170,
  "\u2581haven": 1171,
  "\u2581belakang": 1172,
  "ter": 1173,
  "\u2581read": 1174,
  "\u2581hukum": 1175,
  "\u2581buat": 1176,
  "\u2581important": 1177,
  "\u2581makes": 1178,
  "\u2581Listen": 1179,
  "\u2581Bisa": 1180,
  "\u2581Whoa": 1181,
  "\u2581bantuan": 1182,
  "\u2581city": 1183,
  "\u258130": 1184,
  "\u2581cuma": 1185,
  "\u2581de": 1186,
  "\u2581Se": 1187,
  "\u2581Amerika": 1188,
  "\u2581mengenai": 1189,
  "\u2581behind": 1190,
  "\u2581rest": 1191,
  "\u2581Man": 1192,
  "\u2581making": 1193,
  "\u2581child": 1194,
  "\u2581demi": 1195,
  "\u2581young": 1196,
  "\u2581umat": 1197,
  "\u2581dosa": 1198,
  "\u2581darah": 1199,
  "\u2581kecuali": 1200,
  "\u2581Semuanya": 1201,
  "\u2581high": 1202,
  "\u2581Nya": 1203,
  "\u2581full": 1204,
  "\u2581dengannya": 1205,
  "\u2581taking": 1206,
  "\u2581akhir": 1207,
  "\u2581land": 1208,
  "\u2581perang": 1209,
  "\u2581bukti": 1210,
  "\u2581kira": 1211,
  "\u2581berakhir": 1212,
  "\u2581Maafkan": 1213,
  "te": 1214,
  "\u2581pertanyaan": 1215,
  "\u2581senjata": 1216,
  "\u2581disana": 1217,
  "\u2581dad": 1218,
  "\u2581kid": 1219,
  "\u2581al": 1220,
  "\u2581reason": 1221,
  "\u2581sisi": 1222,
  "\u2581nor": 1223,
  "\u00fb": 1224,
  "\u2581Sayang": 1225,
  "\u2581Paul": 1226,
  "\u2581crazy": 1227,
  "\u2581tonight": 1228,
  "\u2581evil": 1229,
  "\u2581couldn": 1230,
  "\u2581minutes": 1231,
  "\u2581menyenangkan": 1232,
  "\u2581light": 1233,
  "il": 1234,
  "\u2581words": 1235,
  "\u2581Kristen": 1236,
  "\u2581membiarkan": 1237,
  "\u2581parents": 1238,
  "\u2581Mom": 1239,
  "\u2581kematian": 1240,
  "\u25814": 1241,
  "\u2581sejak": 1242,
  "\u2581nya": 1243,
  "\u2581La": 1244,
  "\u2581hamba": 1245,
  "\u2581api": 1246,
  "\u2581speak": 1247,
  "\u2581akhirnya": 1248,
  "\u2581Day": 1249,
  "\u2581bahasa": 1250,
  "\u2581pay": 1251,
  "\u2581cannot": 1252,
  "\u2581janji": 1253,
  "\u2581Para": 1254,
  "\u2581memilih": 1255,
  "\u2581free": 1256,
  "00": 1257,
  "M": 1258,
  "satunya": 1259,
  "\u2581business": 1260,
  "\u2581yes": 1261,
  "w": 1262,
  "do": 1263,
  "\u2581book": 1264,
  "\u2581turun": 1265,
  "\u2581Mu": 1266,
  "\u2581Those": 1267,
  "\u2581story": 1268,
  "\u2581termasuk": 1269,
  "\u2581chance": 1270,
  "\u2581kekuatan": 1271,
  "\u2581sewaktu": 1272,
  "\u2581Fuck": 1273,
  "\u2581hit": 1274,
  "\u2581hey": 1275,
  "\u2581membutuhkan": 1276,
  "\u2581sering": 1277,
  "\u2581perjalanan": 1278,
  "\u2581menuju": 1279,
  "\u2581least": 1280,
  "\u2581alive": 1281,
  "\u2581women": 1282,
  "\u2581ones": 1283,
  "\u2581Bahkan": 1284,
  "\u2581memberitahu": 1285,
  "The": 1286,
  "\u2581Even": 1287,
  "de": 1288,
  "\u2581whatever": 1289,
  "\u2581biarkan": 1290,
  "\u2581order": 1291,
  "\u2581five": 1292,
  "\u2581mine": 1293,
  "\u2581late": 1294,
  "\u2581berapa": 1295,
  "\u2581news": 1296,
  "\u2581meninggal": 1297,
  "\u2581himself": 1298,
  "\u2581malaikat": 1299,
  "\u2581Pergi": 1300,
  "\u2581daughter": 1301,
  "\u2581beautiful": 1302,
  "\u2581dis": 1303,
  "sama": 1304,
  "\u2581selamat": 1305,
  "\u2581ayo": 1306,
  "ar": 1307,
  "\u2581food": 1308,
  "\u2581page": 1309,
  "\u2581easy": 1310,
  "\u2581kosong": 1311,
  "L": 1312,
  "\u2581An": 1313,
  "\u2581dalamnya": 1314,
  "\u2581stuff": 1315,
  "\u2581safe": 1316,
  "\u2581Sebuah": 1317,
  "fn": 1318,
  "\u2581indeed": 1319,
  "el": 1320,
  "\u2581game": 1321,
  "\u2581Some": 1322,
  "li": 1323,
  "\u2581kaki": 1324,
  "!\"": 1325,
  "\u2581un": 1326,
  "\u2581berharap": 1327,
  "\u2581menciptakan": 1328,
  "\u2581Sampai": 1329,
  "\u2581thou": 1330,
  "\u2581question": 1331,
  "\u2581suara": 1332,
  "\u2581follow": 1333,
  "\u2581hilang": 1334,
  "\u2581Hmm": 1335,
  "\u2581tomorrow": 1336,
  "\u2581four": 1337,
  "\u2581drink": 1338,
  "\u2581negara": 1339,
  "\u2581indah": 1340,
  "\u2581watch": 1341,
  "\u2581wish": 1342,
  "\u2581promise": 1343,
  "\u2581perempuan": 1344,
  "per": 1345,
  "\u2581istri": 1346,
  "\u2581kids": 1347,
  "\u2581surat": 1348,
  "\u2581U": 1349,
  "\u2581faith": 1350,
  "ber": 1351,
  "\u2581menjadikan": 1352,
  "sy": 1353,
  "men": 1354,
  "\u2581After": 1355,
  "\u2581died": 1356,
  "\u2581berusaha": 1357,
  "80": 1358,
  "\u2581fact": 1359,
  "\u2581war": 1360,
  "\u2581By": 1361,
  "K": 1362,
  "Ku": 1363,
  "\u2581Peter": 1364,
  "\u2581denganku": 1365,
  "\u2581supposed": 1366,
  "\u2581marah": 1367,
  "\u2581Berapa": 1368,
  "\u2581thank": 1369,
  "up": 1370,
  "\u2581sialan": 1371,
  "\u2581menjawab": 1372,
  "no": 1373,
  "\u2581menulis": 1374,
  "\u2581looks": 1375,
  "um": 1376,
  "\u2581semakin": 1377,
  "\u2581F": 1378,
  "\u2581kebaikan": 1379,
  "\u2581exactly": 1380,
  "min": 1381,
  "\u2581menurut": 1382,
  "\u2581line": 1383,
  "\u2581mom": 1384,
  "\u258112": 1385,
  "\u2581probably": 1386,
  "\u2581Mm": 1387,
  "\u2581berita": 1388,
  "\u2581Nothing": 1389,
  "\u2581tolong": 1390,
  "\u2581besok": 1391,
  "\u2581Pe": 1392,
  "\u2581membaca": 1393,
  "\u2581Mary": 1394,
  "\u2581Ok": 1395,
  "\u25816": 1396,
  "ia": 1397,
  "\u2581langsung": 1398,
  "\u2581minggu": 1399,
  "\u2581Christ": 1400,
  "\u2581themselves": 1401,
  "\u2581Astaga": 1402,
  "\u2581sleep": 1403,
  "\u2581plan": 1404,
  "\u2581started": 1405,
  "\u2581answer": 1406,
  "\u2581afraid": 1407,
  "\u2581kerja": 1408,
  "\u2581stand": 1409,
  "\u2581apabila": 1410,
  "F": 1411,
  "\u2581walk": 1412,
  "Mu": 1413,
  "\u2581diriku": 1414,
  "\u2581Lebih": 1415,
  "\u2581hanyalah": 1416,
  "\u2581Raja": 1417,
  "\u2581ain": 1418,
  "\u2581awal": 1419,
  "\u2581break": 1420,
  "\u2581um": 1421,
  "\u2581hours": 1422,
  "\u2581hak": 1423,
  "\u2581Sepertinya": 1424,
  "\u2581l": 1425,
  "\u2581town": 1426,
  "\u2581Rasul": 1427,
  "\u2581memakai": 1428,
  "\u2581raja": 1429,
  "\u2581melawan": 1430,
  "\u2581living": 1431,
  "\u2581ambil": 1432,
  "\u2581cut": 1433,
  "\u2581return": 1434,
  "\u2581cantik": 1435,
  "\u2581Sangat": 1436,
  "\u2581anymore": 1437,
  "\u2581kapal": 1438,
  "\u2581needs": 1439,
  "\u2581kesalahan": 1440,
  "able": 1441,
  "\u2581Seorang": 1442,
  "\u2581Excuse": 1443,
  "\u2581shot": 1444,
  "\u2581taken": 1445,
  "\u2581menikah": 1446,
  "H": 1447,
  "\u2581police": 1448,
  "\u2581panas": 1449,
  "kanlah": 1450,
  "\u2581serius": 1451,
  "\u2581moment": 1452,
  "\u2581lives": 1453,
  "\u2581makhluk": 1454,
  "\u2581ruang": 1455,
  "\u2581sister": 1456,
  "\u2581berdiri": 1457,
  "You": 1458,
  "\u2581check": 1459,
  "G": 1460,
  "\u2581Bu": 1461,
  "\u2581Biarkan": 1462,
  "\u2581L": 1463,
  "ce": 1464,
  "\u2581kemari": 1465,
  "\u2581tampak": 1466,
  "\u2581kawan": 1467,
  "\u2581fun": 1468,
  "\u2581send": 1469,
  "\u2581film": 1470,
  "\u2581waiting": 1471,
  "\u2581York": 1472,
  "\u2581minute": 1473,
  "\u2581lupa": 1474,
  "\u2581kasus": 1475,
  "\u2581tried": 1476,
  "\u2581Re": 1477,
  "\u2581met": 1478,
  "\u2581pilihan": 1479,
  "\u2581TUHAN": 1480,
  "\u2581king": 1481,
  "\u2581harta": 1482,
  "\u2581ma": 1483,
  "rs": 1484,
  "\u2581jahat": 1485,
  "\u2581kamar": 1486,
  "\u2581hubungan": 1487,
  "\u2581Huh": 1488,
  "\u2581sempurna": 1489,
  "\u2581half": 1490,
  "\u2581saling": 1491,
  "ak": 1492,
  "\u2581Bukankah": 1493,
  "\u2581Hold": 1494,
  "\u2581surely": 1495,
  "dust": 1496,
  "\u2581gun": 1497,
  "\u2581N": 1498,
  "\u2581party": 1499,
  "\u2581rahasia": 1500,
  "\u2581From": 1501,
  "\u2581dibaca": 1502,
  "\u2581goes": 1503,
  "\u2581ass": 1504,
  "...\"": 1505,
  "ic": 1506,
  "\u2581kulakukan": 1507,
  "\u2581Beberapa": 1508,
  "\u2581naik": 1509,
  "\u2581control": 1510,
  "\u2581husband": 1511,
  "\u2581oh": 1512,
  "..,..": 1513,
  "\u2581Ben": 1514,
  "\u2581jawab": 1515,
  "\u2581bahagia": 1516,
  "\u2581except": 1517,
  "\u2581janganlah": 1518,
  "\u2581membuatku": 1519,
  "\u2581forget": 1520,
  "\u2581cari": 1521,
  "\u2581pesan": 1522,
  "\u2581Keep": 1523,
  "\u2581Musa": 1524,
  "\u2581team": 1525,
  "\u2581Sungguh": 1526,
  "bi": 1527,
  "\u2581front": 1528,
  "ment": 1529,
  "\u2581bentuk": 1530,
  "\u2581rencana": 1531,
  "\u2581bangsa": 1532,
  "\u2581past": 1533,
  "Ya": 1534,
  "\u2581learn": 1535,
  "\u2581]": 1536,
  "\u2581bawa": 1537,
  "\u2581coba": 1538,
  "ne": 1539,
  "\u2581muncul": 1540,
  "\u2581laut": 1541,
  "\u2581sepanjang": 1542,
  "\u2581mari": 1543,
  "ca": 1544,
  "\u2581months": 1545,
  "son": 1546,
  "\u2581Bisakah": 1547,
  "\u2581Benarkah": 1548,
  "\u2581ha": 1549,
  "\u2581gets": 1550,
  "\u2581tenang": 1551,
  "\u2581ide": 1552,
  "\u2581Help": 1553,
  "\u2581menghancurkan": 1554,
  "ga": 1555,
  "\u2581country": 1556,
  "ng": 1557,
  "\u2581known": 1558,
  "\u2581along": 1559,
  "\u2581R": 1560,
  "\u2581musuh": 1561,
  "\u2581created": 1562,
  "\u25818": 1563,
  "\u2581bukanlah": 1564,
  "ie": 1565,
  "\u2581siang": 1566,
  "000000": 1567,
  "aH": 1568,
  "\u2581file": 1569,
  "\u2581alam": 1570,
  "\u2581membuatnya": 1571,
  "tak": 1572,
  "hati": 1573,
  "\u2581kiamat": 1574,
  "\u2581cerita": 1575,
  "Candar": 1576,
  "\u2581week": 1577,
  "\u2581Sebenarnya": 1578,
  "\u2581menjelaskan": 1579,
  "\u2581e": 1580,
  "\u2581De": 1581,
  "\u2581menang": 1582,
  "\u2581telling": 1583,
  "\u2581outside": 1584,
  "believe": 1585,
  "\u2581dahulu": 1586,
  "\u2581Setiap": 1587,
  "\u2581Great": 1588,
  "kali": 1589,
  "\u2581almost": 1590,
  "\u2581empat": 1591,
  "\u2581lose": 1592,
  "\u2581menjaga": 1593,
  "\u2581Hari": 1594,
  "\u2581small": 1595,
  "\u2581berat": 1596,
  "\u2581maksudmu": 1597,
  "\u2581mampu": 1598,
  "\u2581diberi": 1599,
  "\u2581thee": 1600,
  "ada": 1601,
  "\u2581jenis": 1602,
  "\u2581peringatan": 1603,
  "\u2581future": 1604,
  "\u2581H": 1605,
  "\u2581Michael": 1606,
  "N": 1607,
  "\u2581turned": 1608,
  "ir": 1609,
  "\u2581either": 1610,
  "ion": 1611,
  "pe": 1612,
  "\u2581pohon": 1613,
  "\u2581bitch": 1614,
  "\u2581Na": 1615,
  "\u2581mendengarkan": 1616,
  "\u2581pribadi": 1617,
  "\u2581possible": 1618,
  "\u2581lima": 1619,
  "\u2581tubuh": 1620,
  "\u2581Ber": 1621,
  "\u2581beri": 1622,
  "\u2581Father": 1623,
  "\u2581pikiran": 1624,
  "\u2581King": 1625,
  "eth": 1626,
  "ro": 1627,
  "\u2581knowledge": 1628,
  "\u2581video": 1629,
  "\u2581planet": 1630,
  "\u25817": 1631,
  "ur": 1632,
  "\u2581Miss": 1633,
  "\u2581Adam": 1634,
  "\u2581normal": 1635,
  "\u2581system": 1636,
  "\u2581ni": 1637,
  "ful": 1638,
  "\u2581couple": 1639,
  "\u2581mengalami": 1640,
  "\u2581bila": 1641,
  "\u2581tiada": 1642,
  "\u2581Si": 1643,
  "\u2581Dua": 1644,
  "and": 1645,
  "\u2581Would": 1646,
  "\u2581cause": 1647,
  "&": 1648,
  "\u2581Which": 1649,
  "\u2581memutuskan": 1650,
  "\u2581batu": 1651,
  "\u2581sit": 1652,
  "\u2581sesuai": 1653,
  "\u2581sendirian": 1654,
  "ru": 1655,
  "\u2581sang": 1656,
  "\u2581Shit": 1657,
  "\u2581Bye": 1658,
  "\u2581Two": 1659,
  "\u2581merasakan": 1660,
  "\u2581Hentikan": 1661,
  "ham": 1662,
  "\u2581lari": 1663,
  "\u2581telepon": 1664,
  "\u2581example": 1665,
  "\u2581dokter": 1666,
  "\u2581tengah": 1667,
  "\u2581sistem": 1668,
  "\u2581tujuan": 1669,
  "lt": 1670,
  "\u2581tim": 1671,
  "\u2581daerah": 1672,
  "\u2581bicarakan": 1673,
  "\u2581sign": 1674,
  "co": 1675,
  "\u2581fast": 1676,
  "\u2581heavens": 1677,
  "\u2581ahead": 1678,
  "\u2581disebut": 1679,
  "aku": 1680,
  "\u2581kejahatan": 1681,
  "\u2581benda": 1682,
  "\u2581mengubah": 1683,
  "\u2581Sure": 1684,
  "\u2581matahari": 1685,
  "\u2581married": 1686,
  "\u2581trouble": 1687,
  "\u2581binatang": 1688,
  "\u2581Banyak": 1689,
  "\u2581Engkau": 1690,
  "\u2581kepadaku": 1691,
  "\u2581People": 1692,
  "\u2581running": 1693,
  "\u2581spirit": 1694,
  "\u2581Berhenti": 1695,
  "\u2581Gambar": 1696,
  "\u2581sementara": 1697,
  "\u2581Witnesses": 1698,
  "as": 1699,
  "We": 1700,
  "\u2581girls": 1701,
  "\u2581sense": 1702,
  "\u2581drive": 1703,
  "\u2581Put": 1704,
  "\u2581pelajaran": 1705,
  "\u2581quite": 1706,
  "\u2581membayar": 1707,
  "ai": 1708,
  "\u2581pak": 1709,
  "\u2581hate": 1710,
  "\u2581melindungi": 1711,
  "\u2581akhirat": 1712,
  "\u2581penjara": 1713,
  "\u2581Berikan": 1714,
  "R": 1715,
  "go": 1716,
  "\u2581dikatakan": 1717,
  "\u2581Frank": 1718,
  "\u2581bayi": 1719,
  "\u2581kekuasaan": 1720,
  "\u2581memikirkan": 1721,
  "\u2581digunakan": 1722,
  "\u2581bunuh": 1723,
  "%": 1724,
  "\u2581touch": 1725,
  "ze": 1726,
  "\u2581million": 1727,
  "\u2581hlm": 1728,
  "\u2581bar": 1729,
  "\u2581diberikan": 1730,
  "\u2581six": 1731,
  "\u2581terdapat": 1732,
  "\u2581memperoleh": 1733,
  "\u2581aren": 1734,
  "\u2581hot": 1735,
  "of": 1736,
  "\u2581J": 1737,
  "\u2581Nice": 1738,
  "\u2581kemana": 1739,
  "\u2581anggota": 1740,
  "\u2581cool": 1741,
  "\u2581(\"": 1742,
  "ti": 1743,
  "\u2581peace": 1744,
  "\u2581berupa": 1745,
  "\u2581semacam": 1746,
  "\u2581Stay": 1747,
  "\u2581feeling": 1748,
  "\u2581akal": 1749,
  "\u2581soul": 1750,
  "\u258118": 1751,
  "\u2581engkau": 1752,
  "\u2581Does": 1753,
  "\u2581near": 1754,
  "be": 1755,
  "\u258150": 1756,
  "\u2581tugas": 1757,
  "\u2581Book": 1758,
  "\u2581Clark": 1759,
  "maka": 1760,
  "\u2581perasaan": 1761,
  "\u2581works": 1762,
  "\u2581boys": 1763,
  "\u2581amal": 1764,
  "\u2581special": 1765,
  "\u2581milik": 1766,
  "\u2581miss": 1767,
  "\u2581Yahudi": 1768,
  "What": 1769,
  "dari": 1770,
  "\u2581office": 1771,
  "\u2581anjing": 1772,
  "\u2581protect": 1773,
  "\u2581kurang": 1774,
  "\u2581berikutnya": 1775,
  "\u2581lie": 1776,
  "\u2581thy": 1777,
  "ness": 1778,
  "\u2581Got": 1779,
  "\u2581message": 1780,
  "\u2581membuatmu": 1781,
  "\u2581untukku": 1782,
  "\u2581James": 1783,
  "\u2581keputusan": 1784,
  "sh": 1785,
  "\u2581main": 1786,
  "Maka": 1787,
  "\u2581pesta": 1788,
  "caya": 1789,
  "\u2581sound": 1790,
  "\u2581certainly": 1791,
  "ge": 1792,
  "\u2581Mrs": 1793,
  "gt": 1794,
  "\u2581sadar": 1795,
  "\u2581seems": 1796,
  "ul": 1797,
  "\u2581worship": 1798,
  "ayat": 1799,
  "ton": 1800,
  "\u2581bangun": 1801,
  "lo": 1802,
  "\u2581arah": 1803,
  "\u2581fall": 1804,
  "\u2581diam": 1805,
  "\u2581panjang": 1806,
  "\u2581ayahmu": 1807,
  "\u2581berbagai": 1808,
  "\u2581membunuhnya": 1809,
  "\u2581bertahan": 1810,
  "\u2581Sebagai": 1811,
  "FFFF": 1812,
  "\u2581questions": 1813,
  "\u2581serious": 1814,
  "5": 1815,
  "\u2581sun": 1816,
  "\u2581Move": 1817,
  "\u2581kitab": 1818,
  "\u2581Kristus": 1819,
  "\u2581Kumohon": 1820,
  "\u2581information": 1821,
  "\u2581paham": 1822,
  "\u2581buah": 1823,
  "\u2581menyukai": 1824,
  "\u2581Inggris": 1825,
  "\u2581informasi": 1826,
  "\u2581beruntung": 1827,
  "\u2581hour": 1828,
  "est": 1829,
  "\u2581sebelah": 1830,
  "\u2581\u00b6": 1831,
  "lim": 1832,
  "uran": 1833,
  "\u2581happens": 1834,
  "\u2581somebody": 1835,
  "\u2581menghadapi": 1836,
  "Kami": 1837,
  "\u2581pesawat": 1838,
  "\u2581masing": 1839,
  "\u2581feet": 1840,
  "\u2581pikirkan": 1841,
  "\u2581strong": 1842,
  "\u2581sick": 1843,
  "\u2581punishment": 1844,
  "\u2581100": 1845,
  "\u2581terlambat": 1846,
  "\u2581kenal": 1847,
  "\u2581membeli": 1848,
  "\u2581May": 1849,
  "\u2581Was": 1850,
  "\u2581became": 1851,
  "\u2581bintang": 1852,
  "\u2581seem": 1853,
  "\u2581kantor": 1854,
  "\u2581pengetahuan": 1855,
  "\u2581buy": 1856,
  "\u2581Make": 1857,
  "\u2581Tom": 1858,
  "ja": 1859,
  "\u2581dewasa": 1860,
  "\u2581sifat": 1861,
  "\u2581dog": 1862,
  "\u2581leaving": 1863,
  "\u2581mencintaimu": 1864,
  "\u2581Nick": 1865,
  "\u2581menemukannya": 1866,
  "\u2581ialah": 1867,
  "\u2581asking": 1868,
  "\u2581diturunkan": 1869,
  "\u2581Indeed": 1870,
  "\u2581data": 1871,
  "\u2581scared": 1872,
  "\u2581felt": 1873,
  "\u2581meng": 1874,
  "\u2581top": 1875,
  "\u2581Senang": 1876,
  "\u2581ulang": 1877,
  "\u2581secret": 1878,
  "\u2581longer": 1879,
  "\u2581lead": 1880,
  "\u2581menolak": 1881,
  "\u2581juta": 1882,
  "\u2581Christian": 1883,
  "ni": 1884,
  "lu": 1885,
  "\u2581obat": 1886,
  "\u2581dingin": 1887,
  "ang": 1888,
  "\u2581Only": 1889,
  "\u2581bajingan": 1890,
  "\u2581perfect": 1891,
  "\u2581ayahku": 1892,
  "\u2581area": 1893,
  "\u2581company": 1894,
  "\u2581adil": 1895,
  "\u2581korban": 1896,
  "\u2581choice": 1897,
  "\u2581pen": 1898,
  "\u2581keduanya": 1899,
  "\u2581bank": 1900,
  "\u2581damn": 1901,
  "\u2581musim": 1902,
  "\u2581win": 1903,
  "\u2581bed": 1904,
  "\u2581god": 1905,
  "\u2581hearts": 1906,
  "\u2581cahaya": 1907,
  "\u2581Mike": 1908,
  "\u2581Shut": 1909,
  "\u2581lucu": 1910,
  "\u2581utama": 1911,
  "ch": 1912,
  "rik": 1913,
  "\u2581kelas": 1914,
  "kata": 1915,
  "\u2581Lihatlah": 1916,
  "\u2581pembunuhan": 1917,
  "\u2581Messenger": 1918,
  "\u2581melihatmu": 1919,
  "\u2581temukan": 1920,
  "ation": 1921,
  "\u2581Permisi": 1922,
  "Y": 1923,
  "\u2581needed": 1924,
  "\u2581burung": 1925,
  "W": 1926,
  "\u2581everybody": 1927,
  "\u2581Alex": 1928,
  "\u2581Yo": 1929,
  "\u2581kapan": 1930,
  "et": 1931,
  "\u2581Daniel": 1932,
  "\u2581stupid": 1933,
  "\u2581beritahu": 1934,
  "\u2581bebas": 1935,
  "\u2581berani": 1936,
  "\u2581shoot": 1937,
  "\u2581membuka": 1938,
  "dengan": 1939,
  "\u2581during": 1940,
  "\u2581Everything": 1941,
  "\u2581sebab": 1942,
  "ling": 1943,
  "\u2581berasal": 1944,
  "\u2581Un": 1945,
  "ko": 1946,
  "\u2581Seseorang": 1947,
  "\u2581sebabnya": 1948,
  "\u2581Kupikir": 1949,
  "\u2581dapatkan": 1950,
  "\u2581Mo": 1951,
  "\u2581waktunya": 1952,
  "tu": 1953,
  "\u2581Lee": 1954,
  "Tidak": 1955,
  "mi": 1956,
  "\u2581segalanya": 1957,
  "\u2581menyembah": 1958,
  "\u2581Sialan": 1959,
  "\u2581eye": 1960,
  "\u2581membawanya": 1961,
  "\u2581terbang": 1962,
  "\u2581Ka": 1963,
  "\u2581nikmat": 1964,
  "siapa": 1965,
  "\u2581perusahaan": 1966,
  "\u2581kurasa": 1967,
  "\u2581forever": 1968,
  "\u2581menyatakan": 1969,
  "\u2581Qur": 1970,
  "\u2581Biar": 1971,
  "\u2581bersalah": 1972,
  "\u2581Paulus": 1973,
  "\u2581Pergilah": 1974,
  "\u2581mendapatkannya": 1975,
  "\u2581Moses": 1976,
  "\u2581berbahaya": 1977,
  "\u2581Charlie": 1978,
  "\u2581meeting": 1979,
  "\u2581signs": 1980,
  "\u2581less": 1981,
  "\u2581eh": 1982,
  "\u2581ampun": 1983,
  "\u2581gambar": 1984,
  "\u2581pick": 1985,
  "\u2581setengah": 1986,
  "\u2581Am": 1987,
  "\u2581pass": 1988,
  "\u2581dasar": 1989,
  "ley": 1990,
  "\u2581urusan": 1991,
  "ut": 1992,
  "\u2581Ho": 1993,
  "\u2581Joe": 1994,
  "\u2581berdoa": 1995,
  "\u2581TV": 1996,
  "\u2581penduduk": 1997,
  "\u2581Meskipun": 1998,
  "\u2581menyelesaikan": 1999,
  "U": 2000,
  "ba": 2001,
  "\u2581thanks": 2002,
  "\u2581jumlah": 2003,
  "\u2581Bo": 2004,
  "\u2581changed": 2005,
  "\u2581hidupku": 2006,
  "\u2581setuju": 2007,
  "\u2581happening": 2008,
  "\u2581siksa": 2009,
  "\u2581Begitu": 2010,
  "\u2581menembak": 2011,
  "\u2581single": 2012,
  "\u2581lewat": 2013,
  "\u2581harapan": 2014,
  "\u2581forth": 2015,
  "ity": 2016,
  "\u25819": 2017,
  "\u2581program": 2018,
  "\u2581Fire": 2019,
  "\u2581Sang": 2020,
  "\u2581nabi": 2021,
  "\u2581memahami": 2022,
  "\u2581betapa": 2023,
  "\u2581ok": 2024,
  "\u2581Kapten": 2025,
  "\u2581black": 2026,
  "\u2581melayani": 2027,
  "\u2581menangkap": 2028,
  "\u2581Captain": 2029,
  "ting": 2030,
  "\u2581Selama": 2031,
  "\u2581hitam": 2032,
  "\u2581Most": 2033,
  "\u2581First": 2034,
  "atan": 2035,
  "\u2581Red": 2036,
  "\u2581dream": 2037,
  "\u2581mengirim": 2038,
  "\u2581giving": 2039,
  "\u2581'%": 2040,
  "\u2581Diam": 2041,
  "j": 2042,
  "ho": 2043,
  "\u2581doctor": 2044,
  "\u2581&": 2045,
  "\u2581Max": 2046,
  "\u2581maksud": 2047,
  "\u2581Mau": 2048,
  "\u2581Walter": 2049,
  "\u2581hujan": 2050,
  "\u2581Ooh": 2051,
  "\u2581law": 2052,
  "\u2581clean": 2053,
  "\u2581W": 2054,
  "\u2581bercanda": 2055,
  "\u2581mencuri": 2056,
  "\u2581melainkan": 2057,
  "\u2581tumbuh": 2058,
  "\u2581kerjakan": 2059,
  "\u2581kelompok": 2060,
  "\u2581takes": 2061,
  "\u2581share": 2062,
  "\u2581Her": 2063,
  "):": 2064,
  "\u2581namanya": 2065,
  "\u2581ahli": 2066,
  "\u258140": 2067,
  "\u2581nomor": 2068,
  "\u2581berkas": 2069,
  "\u2581bersumpah": 2070,
  "\u2581permainan": 2071,
  "\u2581huruf": 2072,
  "\u2581ground": 2073,
  "\u2581bernama": 2074,
  "\u2581Cukup": 2075,
  "\u2581ten": 2076,
  "\u2581batas": 2077,
  "\u2581suci": 2078,
  "\u2581menghabiskan": 2079,
  "\u2581pro": 2080,
  "pa": 2081,
  "\u2581kisah": 2082,
  "\u2581gagal": 2083,
  "\u2581moving": 2084,
  "\u2581Menurut": 2085,
  "\u2581Mmm": 2086,
  "\u2581evidence": 2087,
  "\u2581Something": 2088,
  "\u2581sepertinya": 2089,
  "\u258124": 2090,
  "\u2581till": 2091,
  "\u2581memperlihatkan": 2092,
  "\u2581Damn": 2093,
  "\u2581Watch": 2094,
  "\u2581study": 2095,
  "\u2581mouth": 2096,
  "\u2581jiwa": 2097,
  "\u2581Kerajaan": 2098,
  "\u2581act": 2099,
  "\u2581none": 2100,
  "\u2581luck": 2101,
  "\u2581Master": 2102,
  "\u2581za": 2103,
  "\u2581melewati": 2104,
  "\u2581entire": 2105,
  "\u2581Pasti": 2106,
  "\u2581brothers": 2107,
  "\u2581often": 2108,
  "\u2581Kingdom": 2109,
  "\u2581hotel": 2110,
  "\u2581ayolah": 2111,
  "\u2581kept": 2112,
  "\u2581adanya": 2113,
  "\u2581Ambil": 2114,
  "\u2581Henry": 2115,
  "\u2581Jane": 2116,
  "\u2581saved": 2117,
  "\u2581age": 2118,
  "\u2581bagimu": 2119,
  "\u2581building": 2120,
  "\u2581figure": 2121,
  "\u2581lemah": 2122,
  "\u2581perkara": 2123,
  "\u2581Never": 2124,
  "\u2581Bawa": 2125,
  "\u2581Kapan": 2126,
  "ci": 2127,
  "\u2581memeriksa": 2128,
  "\u258116": 2129,
  "\u2581hair": 2130,
  "\u2581worked": 2131,
  "\u2581mengerjakan": 2132,
  "\u2581bisnis": 2133,
  "\u2581pakaian": 2134,
  "\u2581fault": 2135,
  "\u2581Lepaskan": 2136,
  "\u2581mercy": 2137,
  "\u2581dear": 2138,
  "\u2581pahala": 2139,
  "\u2581penyakit": 2140,
  "\u2581using": 2141,
  "\u2581Eh": 2142,
  "Qur": 2143,
  "\u2581suami": 2144,
  "\u2581y": 2145,
  "\u2581pembunuh": 2146,
  "\u2581p": 2147,
  "\u2581key": 2148,
  "\u2581menyadari": 2149,
  "\u2581sidang": 2150,
  "\u2581kunci": 2151,
  "\u2581straight": 2152,
  "\u258114": 2153,
  "\u2581voice": 2154,
  "\u2581berjanji": 2155,
  "\u2581calling": 2156,
  "\u2581Very": 2157,
  "\u2581putih": 2158,
  "\u2581Sarah": 2159,
  "\u2581cocok": 2160,
  "\u2581Iya": 2161,
  "\u2581group": 2162,
  "No": 2163,
  "\u2581FBI": 2164,
  "\u2581hath": 2165,
  "\u2581believers": 2166,
  "\u2581Abraham": 2167,
  "\u2581Ter": 2168,
  "\u2581catatan": 2169,
  "\u2581funny": 2170,
  "\u2581shut": 2171,
  "less": 2172,
  "\u2581mimpi": 2173,
  "\u2581gunung": 2174,
  "\u2581loved": 2175,
  "\u2581heaven": 2176,
  "\u2581ways": 2177,
  "\u2581menangis": 2178,
  "\u258125": 2179,
  "\u258111": 2180,
  "\u2581early": 2181,
  "\u2581sort": 2182,
  "\u2581hasil": 2183,
  "you": 2184,
  "kannya": 2185,
  "annya": 2186,
  "\u2581terbuka": 2187,
  "\u2581within": 2188,
  "\u2581hai": 2189,
  "masing": 2190,
  "ju": 2191,
  "\u2581George": 2192,
  "bar": 2193,
  "\u2581Keluar": 2194,
  "Apa": 2195,
  "\u2581ibumu": 2196,
  "\u2581boss": 2197,
  "hi": 2198,
  "\u2581Christians": 2199,
  "\u2581berbohong": 2200,
  "ty": 2201,
  "\u2581berguna": 2202,
  "\u2581Ta": 2203,
  "\u2581write": 2204,
  "ini": 2205,
  "\u2581neither": 2206,
  "\u2581ilmu": 2207,
  "\u2581mesin": 2208,
  "\u2581sel": 2209,
  "\u2581nak": 2210,
  "\u2581balasan": 2211,
  "\u2581pain": 2212,
  "\u2581playing": 2213,
  "\u2581lagu": 2214,
  "\u2581menelepon": 2215,
  "\u2581sea": 2216,
  "\u2581pasukan": 2217,
  "\u2581catch": 2218,
  "\u2581Every": 2219,
  "\u2581,\"": 2220,
  "\u2581sesudah": 2221,
  "\u2581akibat": 2222,
  "\u2581Dialah": 2223,
  "\u2581Lo": 2224,
  "hmm": 2225,
  "\u2581halaman": 2226,
  "\u2581Whatever": 2227,
  "\u2581biasanya": 2228,
  "\u2581situation": 2229,
  "\u2581lady": 2230,
  "\u2581Selain": 2231,
  "\u2581whose": 2232,
  "\u2581glad": 2233,
  "\u2581rather": 2234,
  "\u2581cold": 2235,
  "\u2581Per": 2236,
  "\u2581anyway": 2237,
  "\u2581red": 2238,
  "ry": 2239,
  "\u2581security": 2240,
  "\u2581enam": 2241,
  "\u2581namun": 2242,
  "\u2581Semoga": 2243,
  "\u2581spend": 2244,
  "\u2581golongan": 2245,
  "\u2581dolar": 2246,
  "ff": 2247,
  "\u2581roh": 2248,
  "\u2581menginginkan": 2249,
  "\u2581Son": 2250,
  "\u2581pantas": 2251,
  "\u2581personal": 2252,
  "\u2581mencapai": 2253,
  "\u2581kanan": 2254,
  "\u2581present": 2255,
  "\u2581kesini": 2256,
  "\u2581disebabkan": 2257,
  "\u2581Lakukan": 2258,
  "\u2581selamanya": 2259,
  "\u2581kehendak": 2260,
  "\u2581bahan": 2261,
  "\u2581certain": 2262,
  "\u2581muka": 2263,
  "\u2581kerajaan": 2264,
  "\u2581Call": 2265,
  "\u2581India": 2266,
  "\u2581mengingat": 2267,
  "\u2581udara": 2268,
  "\u2581target": 2269,
  "V": 2270,
  "\u2581Hati": 2271,
  "tan": 2272,
  "\u2581amat": 2273,
  "\u2581memanggil": 2274,
  "\u2581bergabung": 2275,
  "\u2581Peng": 2276,
  "\u2581weeks": 2277,
  "\u2581ditemukan": 2278,
  "\u2581menyerang": 2279,
  "uh": 2280,
  "\u2581Sama": 2281,
  "\u2581finally": 2282,
  "\u2581disebutkan": 2283,
  "\u2581list": 2284,
  "\u2581Could": 2285,
  "\u2581sungai": 2286,
  "\u00ee": 2287,
  "\u2581foto": 2288,
  "\u2581membangun": 2289,
  "\u2581seeing": 2290,
  "\u2581Nona": 2291,
  "\u2581step": 2292,
  "\u2581iman": 2293,
  "\u2581dibuat": 2294,
  "\u2581Su": 2295,
  "\u2581merah": 2296,
  "\u2581St": 2297,
  "\u2581rasanya": 2298,
  "\u2581Fine": 2299,
  "\u2581seven": 2300,
  "\u2581o": 2301,
  "\u2581agak": 2302,
  "\u2581mengerikan": 2303,
  "\u2581kebanyakan": 2304,
  "60\\": 2305,
  "\u2581looked": 2306,
  "\u2581benci": 2307,
  "\u2581Mengetahui": 2308,
  "\u2581m": 2309,
  "\u2581Big": 2310,
  "ung": 2311,
  "\u2581Aah": 2312,
  "\u2581dimulai": 2313,
  "ate": 2314,
  "\u2581dariku": 2315,
  "\u2581menyesal": 2316,
  "\u2581hadiah": 2317,
  "\u2581khusus": 2318,
  "\u2581sedangkan": 2319,
  "\u2581road": 2320,
  "va": 2321,
  "\u25813:": 2322,
  "\u2581situasi": 2323,
  "\u2581white": 2324,
  "\u2581Tenang": 2325,
  "\u2581worth": 2326,
  "\u2581menyebabkan": 2327,
  "\u2581terang": 2328,
  "\u25811,": 2329,
  "\u2581Picture": 2330,
  "\u2581Remember": 2331,
  "\u2581poor": 2332,
  "\u2581jumpa": 2333,
  "\u2581Salah": 2334,
  "\u2581omong": 2335,
  "\u2581piece": 2336,
  "\u2581whoa": 2337,
  "ian": 2338,
  "\u2581ship": 2339,
  "\u2581sweet": 2340,
  "\u2581born": 2341,
  "\u2581wajah": 2342,
  "\u2581tindakan": 2343,
  "\u2581macam": 2344,
  "teman": 2345,
  "cause": 2346,
  "\u2581memulai": 2347,
  "\u2581pindah": 2348,
  "\u2581support": 2349,
  "\u2581Katakanlah": 2350,
  "\u2581Nak": 2351,
  "\u2581V": 2352,
  "\u2581Over": 2353,
  "\u2581setan": 2354,
  "\u2581state": 2355,
  "\u2581above": 2356,
  "\u2581service": 2357,
  "tidak": 2358,
  "\u2581Men": 2359,
  "fa": 2360,
  "\u2581Dean": 2361,
  "\u2581radio": 2362,
  "\u2581menderita": 2363,
  "\u2581sy": 2364,
  "\u25812:": 2365,
  "\u2581pemimpin": 2366,
  "untuk": 2367,
  "\u2581mengeluarkan": 2368,
  "\u2581Coba": 2369,
  "\u2581mengenal": 2370,
  "\u2581wrote": 2371,
  "\u2581lahir": 2372,
  "\u2581marriage": 2373,
  "Apakah": 2374,
  "v": 2375,
  "J": 2376,
  "\u2581hospital": 2377,
  "\u2581menye": 2378,
  "\u2581anakku": 2379,
  "\u2581menyukainya": 2380,
  "\u2581tampaknya": 2381,
  "\u2581doubt": 2382,
  "\u2581beat": 2383,
  "\u2581music": 2384,
  "\u2581dance": 2385,
  "\u2581Silakan": 2386,
  "\u2581karunia": 2387,
  "\u2581dark": 2388,
  "sia": 2389,
  "\u2581mencintai": 2390,
  "\u2581menghentikan": 2391,
  "bat": 2392,
  "\u2581Open": 2393,
  "\u2581history": 2394,
  "\u2581menikmati": 2395,
  "ted": 2396,
  "tiba": 2397,
  "\u2581explain": 2398,
  "\u2581tentara": 2399,
  "\u2581sibuk": 2400,
  "\u2581test": 2401,
  "\u2581terluka": 2402,
  "\u2581meskipun": 2403,
  "\u2581sex": 2404,
  "\u2581keren": 2405,
  "It": 2406,
  "\u2581report": 2407,
  "\u2581forgive": 2408,
  "\u2581layak": 2409,
  "\u2581deeds": 2410,
  "\u2581\u266b": 2411,
  "itu": 2412,
  "\u2581perkataan": 2413,
  "\u2581path": 2414,
  "\u2581saleh": 2415,
  "\u258113": 2416,
  "\u2581Lu": 2417,
  "Kau": 2418,
  "\u2581somewhere": 2419,
  "\u2581Y": 2420,
  "aan": 2421,
  "\u2581missing": 2422,
  "\u2581tuhan": 2423,
  "\u2581daya": 2424,
  "\u2581rahmat": 2425,
  "oh": 2426,
  "\u2581Should": 2427,
  "\u2581alat": 2428,
  "\u2581command": 2429,
  "\u2581date": 2430,
  "\u2581angin": 2431,
  "\u2581tinggalkan": 2432,
  "\u2581anybody": 2433,
  "\u2581Daud": 2434,
  "kepada": 2435,
  "\u2581daging": 2436,
  "mo": 2437,
  "\u2581dinner": 2438,
  "\u2581short": 2439,
  "\u2581siapapun": 2440,
  "\u2581tuan": 2441,
  "lagi": 2442,
  "\u2581bus": 2443,
  "fi": 2444,
  "ck": 2445,
  "\u2581reward": 2446,
  "\u2581Li": 2447,
  "\u2581sejarah": 2448,
  "\u2581manis": 2449,
  "\u2581Pria": 2450,
  "\u2581kulit": 2451,
  "\u2581Any": 2452,
  "\u2581Nama": 2453,
  "\u2581swear": 2454,
  "\u2581setia": 2455,
  "\u2581class": 2456,
  "\u2581THE": 2457,
  "\u2581t": 2458,
  "\u2581rendah": 2459,
  "\u2581sin": 2460,
  "\u2581London": 2461,
  "\u2581perubahan": 2462,
  "\u2581Mark": 2463,
  "ad": 2464,
  "\u2581bear": 2465,
  "\u2581worse": 2466,
  "ver": 2467,
  "\u2581menurutmu": 2468,
  "\u2581problems": 2469,
  "\u2581pertemuan": 2470,
  "\u2581cover": 2471,
  "\u2581Everyone": 2472,
  "\u2581spiritual": 2473,
  "Cause": 2474,
  "\u2581ikan": 2475,
  "\u2581attack": 2476,
  "\u2581picture": 2477,
  "\u2581gelap": 2478,
  "\u2581menghilang": 2479,
  "\u2581kukatakan": 2480,
  "\u2581month": 2481,
  "mereka": 2482,
  "\u2581berpaling": 2483,
  "\u2581However": 2484,
  "\u2581c": 2485,
  "\u2581hewan": 2486,
  "\u2581menimpa": 2487,
  "\u2581respect": 2488,
  "for": 2489,
  "\u2581careful": 2490,
  "\u2581government": 2491,
  "\u2581kuda": 2492,
  "\u2581acara": 2493,
  "\u2581tertentu": 2494,
  "\u2581berharga": 2495,
  "\u2581Earth": 2496,
  "\u2581sikap": 2497,
  "\u2581sihir": 2498,
  "\u2581dangerous": 2499,
  "\u2581ride": 2500,
  "han": 2501,
  "all": 2502,
  "\u2581Someone": 2503,
  "\u2581tujuh": 2504,
  "\u2581Teman": 2505,
  "\u2581Tempat": 2506,
  "\u2581bantu": 2507,
  "\u2581Memang": 2508,
  "\u2581whether": 2509,
  "\u2581Air": 2510,
  "\u2581Tim": 2511,
  "\u2581abad": 2512,
  "\u2581Kim": 2513,
  "\u258117": 2514,
  "\u2581d": 2515,
  "\u2581kaya": 2516,
  "\u2581Masih": 2517,
  "\u2581serve": 2518,
  "Dia": 2519,
  "\u2581Pertama": 2520,
  "\u2581monster": 2521,
  "\u2581sumber": 2522,
  "\u2581Hell": 2523,
  "\u2581kiri": 2524,
  "\u25811:": 2525,
  "\u2581witness": 2526,
  "=": 2527,
  "\u2581kidding": 2528,
  "\u2581bagiku": 2529,
  "\u2581makna": 2530,
  "\u2581pe": 2531,
  "ent": 2532,
  "\u2022": 2533,
  "\u2581daftar": 2534,
  "\u2581accept": 2535,
  "\u2581kadang": 2536,
  "\u2581hide": 2537,
  "\u2581serangan": 2538,
  "\u2581kereta": 2539,
  "\u2581menyerah": 2540,
  "so": 2541,
  "\u2581Since": 2542,
  "\u2581Tetap": 2543,
  "\u2581Hurry": 2544,
  "\u2581ruangan": 2545,
  "\u2581menurunkan": 2546,
  "\u2581Mulia": 2547,
  "\u2581Mama": 2548,
  "\u2581tree": 2549,
  "\u2581gives": 2550,
  "\u2581welcome": 2551,
  "\u2581hutan": 2552,
  "\u2581mandi": 2553,
  "\u2581musik": 2554,
  "\u2581ibuku": 2555,
  "\u2581jujur": 2556,
  "\u2581account": 2557,
  "\u2581gas": 2558,
  "\u2581position": 2559,
  "\u2581offer": 2560,
  "\u2581Da": 2561,
  "\u2581hukuman": 2562,
  "\u2581pernikahan": 2563,
  "\u2581honey": 2564,
  "\u2581promised": 2565,
  "\u2581righteous": 2566,
  "\u2581rohani": 2567,
  "\u2581Bill": 2568,
  "\u2581tanganmu": 2569,
  "\u2581weird": 2570,
  "by": 2571,
  "rasul": 2572,
  "\u2581saksi": 2573,
  "\u2581rekan": 2574,
  "\u2581padahal": 2575,
  "\u2581learned": 2576,
  "\u2581bung": 2577,
  "\u2581miliki": 2578,
  "\u2581Rumah": 2579,
  "\u2581helped": 2580,
  "\u2581following": 2581,
  "\u2581lantai": 2582,
  "\u2581enak": 2583,
  "\u2581Three": 2584,
  "\u2581jawaban": 2585,
  "\u2581es": 2586,
  "\u2581meant": 2587,
  "\u2581Leave": 2588,
  "\u2581menyampaikan": 2589,
  "\u2581believed": 2590,
  "\u2581perhatian": 2591,
  "\u2581tertarik": 2592,
  "\u2581mankind": 2593,
  "\u2581teach": 2594,
  "\u2581Satan": 2595,
  "\u2581handle": 2596,
  "\u2581expect": 2597,
  "\u2581ketakutan": 2598,
  "\u2581zaman": 2599,
  "kala": 2600,
  "Hai": 2601,
  "\u2581bola": 2602,
  "\u2581kesana": 2603,
  "\u2581menjalankan": 2604,
  "\u2581guide": 2605,
  "\u2581pull": 2606,
  "\u2581menghasilkan": 2607,
  "\u2581bro": 2608,
  "\u2581pihak": 2609,
  "id": 2610,
  "\u2581bahaya": 2611,
  "\u2581Beri": 2612,
  "\u2581Mi": 2613,
  "\u2581putra": 2614,
  "\u2581sejati": 2615,
  "\u2581YOU": 2616,
  "\u2581Welcome": 2617,
  "\u2581dengarkan": 2618,
  "\u2581terlibat": 2619,
  "du": 2620,
  "\u2581minuman": 2621,
  "ster": 2622,
  "tanda": 2623,
  "\u2581consider": 2624,
  "\u2581selanjutnya": 2625,
  "\u2581kemungkinan": 2626,
  "\u2581k": 2627,
  "\u2581Sa": 2628,
  "\u2581buddy": 2629,
  "\u2581kartu": 2630,
  "\u2581baiklah": 2631,
  "\u2581umum": 2632,
  "\u2581San": 2633,
  "\u2581detik": 2634,
  "\u2581wonder": 2635,
  "yu": 2636,
  "\u2581City": 2637,
  "\u2581decided": 2638,
  "der": 2639,
  "\u2581Jim": 2640,
  "\u2581drop": 2641,
  "\u2581memperhatikan": 2642,
  "\u2581mistake": 2643,
  "\u2581field": 2644,
  "\u2581lying": 2645,
  "\u2581balik": 2646,
  "we": 2647,
  "\u2581deep": 2648,
  "\u2581throw": 2649,
  "\u2581Harry": 2650,
  "\u2581across": 2651,
  "\u2581keamanan": 2652,
  "Mereka": 2653,
  "\u2581bertindak": 2654,
  "\u2581enjoy": 2655,
  "\u2581situ": 2656,
  "\u2581Dunia": 2657,
  "lin": 2658,
  "\u2581Kembali": 2659,
  "\u2581emas": 2660,
  "\u2581self": 2661,
  "\u2581toko": 2662,
  "\u2581kecelakaan": 2663,
  "\u2581gunakan": 2664,
  "\u2581Polisi": 2665,
  "Ke": 2666,
  "\u2581mengandung": 2667,
  "\u2581Daddy": 2668,
  "\u2581super": 2669,
  "\u2581Waktu": 2670,
  "\u2581pakai": 2671,
  "\u2581Pen": 2672,
  "\u2581began": 2673,
  "\u2581Belum": 2674,
  "\u2581murder": 2675,
  "gu": 2676,
  "\u2581simple": 2677,
  "\u2581caranya": 2678,
  "\u2581kubilang": 2679,
  "\u2581ex": 2680,
  "\u2581panggilan": 2681,
  "\u2581guru": 2682,
  "\u2581reach": 2683,
  "\u2581Love": 2684,
  "\u2581kotak": 2685,
  "\u2581putri": 2686,
  "\u25814:": 2687,
  "\u2581seek": 2688,
  "\u2581Emily": 2689,
  "\u2581pintar": 2690,
  "ik": 2691,
  "\u2581About": 2692,
  "\u2581space": 2693,
  "\u2581lu": 2694,
  "\u2581completely": 2695,
  "\u2581Islam": 2696,
  "\u2581sometimes": 2697,
  "fir": 2698,
  "\u2581caught": 2699,
  "\u2581Us": 2700,
  "\u2581bermaksud": 2701,
  "\u2581satunya": 2702,
  "\u2581Dengarkan": 2703,
  "\u2581destroy": 2704,
  "\u2581siksaan": 2705,
  "\u2581idiot": 2706,
  "\u2581membunuhmu": 2707,
  "\u2581LORD": 2708,
  "\u2581Sewaktu": 2709,
  "\u2581menolong": 2710,
  "\u2581bersih": 2711,
  "\u2581attention": 2712,
  "\u2581watching": 2713,
  "one": 2714,
  "ran": 2715,
  "\u2581box": 2716,
  "\u2581Last": 2717,
  "\u2581palsu": 2718,
  "\u2581mabuk": 2719,
  "\u2581Dasar": 2720,
  "\u258119": 2721,
  "rah": 2722,
  "\u2581amazing": 2723,
  "\u2581killing": 2724,
  "\u2581weren": 2725,
  "\u2581World": 2726,
  "\u2581difficult": 2727,
  "\u2581Jo": 2728,
  "He": 2729,
  "\u2581masyarakat": 2730,
  "Ma": 2731,
  "\u2581instead": 2732,
  "\u2581purpose": 2733,
  "\u2581revealed": 2734,
  "pen": 2735,
  "\u2581Yet": 2736,
  "\u2581moved": 2737,
  "\u2581song": 2738,
  "\u2581Inilah": 2739,
  "\u2581More": 2740,
  "\u2581mendatang": 2741,
  "\u2581Danny": 2742,
  "\u2581kemenangan": 2743,
  "\u2581enemy": 2744,
  "alat": 2745,
  "\u2581X": 2746,
  "\u2581El": 2747,
  "\u2581Mana": 2748,
  "\u2581memenuhi": 2749,
  "\u2581Time": 2750,
  "\u2581Jimmy": 2751,
  "\u2581prayer": 2752,
  "\u2581Sebelum": 2753,
  "\u2581mengatur": 2754,
  "\u2581menjual": 2755,
  "\u2581mengira": 2756,
  "\u2581menyembunyikan": 2757,
  "\u2581Nobody": 2758,
  "\u2581harap": 2759,
  "\u2581prison": 2760,
  "\u2581Mother": 2761,
  "\u2581melanggar": 2762,
  "\u2581merusak": 2763,
  "\u2581tiap": 2764,
  "\u2581forward": 2765,
  "\u2581Sesuatu": 2766,
  "\u2581sial": 2767,
  "3": 2768,
  "\u2581Buka": 2769,
  "\u2581membantumu": 2770,
  "ger": 2771,
  "\u2581perjanjian": 2772,
  "\u2581Run": 2773,
  "\u2581servants": 2774,
  "\u2581Think": 2775,
  "\u2581maksudku": 2776,
  "\u2581brain": 2777,
  "\u2581menemui": 2778,
  "\u2581Show": 2779,
  "\u2581cell": 2780,
  "\u2581wedding": 2781,
  "\u2581ourselves": 2782,
  "ive": 2783,
  "\u2581mengalahkan": 2784,
  "\u2581type": 2785,
  "\u2581Kata": 2786,
  "\u2581murid": 2787,
  "\u2581congregation": 2788,
  "\u2581lived": 2789,
  "\u2581Black": 2790,
  "\u2581langkah": 2791,
  "\u2581Tuhanku": 2792,
  "\u2581grow": 2793,
  "\u2581tidaklah": 2794,
  "\u2581posisi": 2795,
  "ler": 2796,
  "\u2581gift": 2797,
  "\u2581fighting": 2798,
  "\u2581terbesar": 2799,
  "den": 2800,
  "\u2581Actually": 2801,
  "\u2581Sebab": 2802,
  "\u2581dikenal": 2803,
  "\u2581lucky": 2804,
  "\u2581sons": 2805,
  "\u2581rock": 2806,
  "\u2581melarikan": 2807,
  "\u2581view": 2808,
  "\u2581master": 2809,
  "\u2581kemarin": 2810,
  "\u2581memastikan": 2811,
  "\u2581magic": 2812,
  "\u2581nobody": 2813,
  "\u2581apos": 2814,
  "\u2581miles": 2815,
  "\u2581experience": 2816,
  "\u2581menahan": 2817,
  "\u2581Today": 2818,
  "\u2581habis": 2819,
  "\u2581destroyed": 2820,
  "\u2581Back": 2821,
  "\u2581angels": 2822,
  "\u2581Kitab": 2823,
  "\u2581asing": 2824,
  "\u2581Agent": 2825,
  "\u2581Matt": 2826,
  "\u2581continue": 2827,
  "\u2581mengatakannya": 2828,
  "\u2581record": 2829,
  "\u2581Anna": 2830,
  "\u2581worried": 2831,
  "\u2581dibunuh": 2832,
  "\u2581broke": 2833,
  "\u2581menganggap": 2834,
  "\u2581dimaksud": 2835,
  "\u2581berlaku": 2836,
  "\u2581menonton": 2837,
  "\u2581Entahlah": 2838,
  "\u2581contoh": 2839,
  "\u2581bersikap": 2840,
  "\u2581fell": 2841,
  "\u2581tanya": 2842,
  "\u2581public": 2843,
  "san": 2844,
  "\u2581ketiga": 2845,
  "\u2581menutup": 2846,
  "\u2581Scott": 2847,
  "\u2581memakan": 2848,
  "\u2581wahai": 2849,
  "\u2581=": 2850,
  "\u2581Boleh": 2851,
  "\u2581relationship": 2852,
  "\u2581Cha": 2853,
  "\u2581berangkat": 2854,
  "\u2581taught": 2855,
  "\u2581kini": 2856,
  "\u2581Sara": 2857,
  "\u2581taat": 2858,
  "\u2581honor": 2859,
  "\u2581mad": 2860,
  "\u2581Bahwa": 2861,
  "\u2581sky": 2862,
  "\u2581passed": 2863,
  "\u2581join": 2864,
  "\u2581Agen": 2865,
  "\u2581sehat": 2866,
  "\u2581otak": 2867,
  "\u2581kalinya": 2868,
  "\u2581hancur": 2869,
  "\u2581standing": 2870,
  "\u2581finish": 2871,
  "\u2581floor": 2872,
  "\u2581yourselves": 2873,
  "\u2581build": 2874,
  "gi": 2875,
  "\u2581train": 2876,
  "\u2581Silahkan": 2877,
  "\u2581busy": 2878,
  "kita": 2879,
  "\u2581Tiga": 2880,
  "\u2581puluh": 2881,
  "\u2581Their": 2882,
  "\u2581bag": 2883,
  "\u2581nasihat": 2884,
  "\u2581hentikan": 2885,
  "\u2581mengingkari": 2886,
  "\u2581force": 2887,
  "\u2581fly": 2888,
  "\u2581menempatkan": 2889,
  "dia": 2890,
  "Allah": 2891,
  "hari": 2892,
  "\u2581evening": 2893,
  "\u2581miskin": 2894,
  "\u2581middle": 2895,
  "\u2581anywhere": 2896,
  "\u2581imagine": 2897,
  "\u2581kalimat": 2898,
  "\u2581malu": 2899,
  "\u2581contact": 2900,
  "\u2581Looks": 2901,
  "Oh": 2902,
  "\u2581saatnya": 2903,
  "\u2581realize": 2904,
  "\u2581laporan": 2905,
  "\u2581level": 2906,
  "\u2581strength": 2907,
  "\u2581mengadakan": 2908,
  "\u2581pemerintah": 2909,
  "\u2581liar": 2910,
  "\u2581hang": 2911,
  "\u2581Everybody": 2912,
  "\u2581Surely": 2913,
  "\u2581Isn": 2914,
  "\u2581kejadian": 2915,
  "chi": 2916,
  "\u2581favor": 2917,
  "\u2581inilah": 2918,
  "\u2581American": 2919,
  "pi": 2920,
  "ING": 2921,
  "\u2581art": 2922,
  "\u2581desire": 2923,
  "\u2581sederhana": 2924,
  "\u2581berhak": 2925,
  "\u2581color": 2926,
  "\u2581ran": 2927,
  "\u2581artikel": 2928,
  "ab": 2929,
  "\u2581enter": 2930,
  "\u2581terrible": 2931,
  "\u2581titik": 2932,
  "\u2581Menurutmu": 2933,
  "\u2581terkenal": 2934,
  "\u2581Rachel": 2935,
  "\u2581sounds": 2936,
  "\u2581Holy": 2937,
  "\u2581doa": 2938,
  "\u2581Bob": 2939,
  "\u2581berhala": 2940,
  "\u2581thousand": 2941,
  "\u2581bunga": 2942,
  "\u2581Ja": 2943,
  "\u2581gembira": 2944,
  "\u2581Jalan": 2945,
  "\u2581boat": 2946,
  "\u2581anaknya": 2947,
  "\u2581named": 2948,
  "ish": 2949,
  "\u2581Once": 2950,
  "\u2581proud": 2951,
  "\u2581religion": 2952,
  "\u2581rusak": 2953,
  "hamba": 2954,
  "\u2581$": 2955,
  "\u2581sebaiknya": 2956,
  "\u2581Sejak": 2957,
  "\u2581Still": 2958,
  "\u2581Oliver": 2959,
  "\u2581spent": 2960,
  "\u2581Paris": 2961,
  "\u2581keberatan": 2962,
  "\u2581peng": 2963,
  "\u2581Z": 2964,
  "\u2581menceritakan": 2965,
  "All": 2966,
  "\u2581truly": 2967,
  "sen": 2968,
  "land": 2969,
  "\u2581army": 2970,
  "\u2581quick": 2971,
  "\u2581Shh": 2972,
  "mer": 2973,
  "\u2581United": 2974,
  "\u2581butuhkan": 2975,
  "\u2581tamu": 2976,
  "\u2581kabur": 2977,
  "ok": 2978,
  "\u2581kalah": 2979,
  "\u2581nilai": 2980,
  "wi": 2981,
  "\u2581choose": 2982,
  "\u2581fair": 2983,
  "\u2581garis": 2984,
  "\u2581hundred": 2985,
  "\u25815:": 2986,
  "\u2581low": 2987,
  "\u2581whoever": 2988,
  "os": 2989,
  "\u2581guidance": 2990,
  "he": 2991,
  "\u2581America": 2992,
  "\u2581remain": 2993,
  "\u2581form": 2994,
  "\u2581putus": 2995,
  "\u258122": 2996,
  "\u2581street": 2997,
  "gan": 2998,
  "\u2581Word": 2999,
  "\u2581Ow": 3000,
  "\u2581ketahui": 3001,
  "\u2581mengganggu": 3002,
  "\u2581lurus": 3003,
  "\u2581mil": 3004,
  "\u2581moon": 3005,
  "\u2581Wanita": 3006,
  "im": 3007,
  "\u2581built": 3008,
  "mal": 3009,
  "pul": 3010,
  "\u2581Bad": 3011,
  "\u2581Fir": 3012,
  "\u2581hendak": 3013,
  "\u2581therefore": 3014,
  "\u2581Ray": 3015,
  "\u2581da": 3016,
  "\u2581ternyata": 3017,
  "kau": 3018,
  "\u2581ancaman": 3019,
  "\u2581Ayahku": 3020,
  "out": 3021,
  "\u2581wear": 3022,
  "\u2581ring": 3023,
  "\u2581final": 3024,
  "lan": 3025,
  "\u2581brengsek": 3026,
  "\u2581ba": 3027,
  "\u2581menyimpan": 3028,
  "\u2581berhubungan": 3029,
  "\u2581large": 3030,
  "\u2581quickly": 3031,
  "\u2581sampah": 3032,
  "\u2581warna": 3033,
  "\u2581en": 3034,
  "\u2581virus": 3035,
  "\u2581dude": 3036,
  "\u2581mengumpulkan": 3037,
  "\u2581tingkat": 3038,
  "ies": 3039,
  "\u2581gold": 3040,
  "\u2581bisakah": 3041,
  "\u2581temanku": 3042,
  "\u2581pistol": 3043,
  "\u2581Dapatkah": 3044,
  "\u2581cry": 3045,
  "\u2581menyuruh": 3046,
  "\u2581fish": 3047,
  "\u2581mengakui": 3048,
  "lain": 3049,
  "\u2581wall": 3050,
  "\u2581berfirman": 3051,
  "\u2581Out": 3052,
  "senang": 3053,
  "\u2581bertanggung": 3054,
  "\u2581Thus": 3055,
  "\u2581blow": 3056,
  "\u2581nyaman": 3057,
  "\u2581Ingat": 3058,
  "\u2581Perhaps": 3059,
  "\u2581local": 3060,
  "\u2581membunuhku": 3061,
  "This": 3062,
  "\u2581broken": 3063,
  "\u2581budak": 3064,
  "\u2581third": 3065,
  "\u2581memper": 3066,
  "\u2581bangga": 3067,
  "\u2581tulang": 3068,
  "\u2581wake": 3069,
  "\u2581mengejar": 3070,
  "\u2581Baru": 3071,
  "\u2581involved": 3072,
  "\u25816:": 3073,
  "\u2581usia": 3074,
  "\u2581ayahnya": 3075,
  "\u2581birthday": 3076,
  "Ber": 3077,
  "mat": 3078,
  "\u2581bohong": 3079,
  "\u2581towards": 3080,
  "\u2581co": 3081,
  "\u2581quiet": 3082,
  "\u2581Mesir": 3083,
  "\u2581harusnya": 3084,
  "tahun": 3085,
  "\u2581calls": 3086,
  "bo": 3087,
  "\u2581jendela": 3088,
  "\u2581stopped": 3089,
  "tor": 3090,
  "\u2581fix": 3091,
  "age": 3092,
  "\u2581Guys": 3093,
  "\u2581Yusuf": 3094,
  "\u2581agen": 3095,
  "\u2581penjaga": 3096,
  "\u2581baginya": 3097,
  "\u2581terdengar": 3098,
  "\u2581menakjubkan": 3099,
  "\u2581humans": 3100,
  "\u2581Papa": 3101,
  "\u2581memberitahumu": 3102,
  "\u2581na": 3103,
  "\u2581lab": 3104,
  "\u2581Akhirnya": 3105,
  "\u2581semesta": 3106,
  "\u2581keinginan": 3107,
  "\u2581Claire": 3108,
  "\u2581mayat": 3109,
  "\u2581sight": 3110,
  "\u2581lubang": 3111,
  "\u2581misi": 3112,
  "ist": 3113,
  "\u2581reading": 3114,
  "\u2581meja": 3115,
  "\u2581paid": 3116,
  "Di": 3117,
  "\u2581mengucapkan": 3118,
  "\u2581q": 3119,
  "\u2581mission": 3120,
  "\u2581Guru": 3121,
  "\u2581create": 3122,
  "\u2581kekal": 3123,
  "\u2581according": 3124,
  "\u2581calm": 3125,
  "\u2581sembah": 3126,
  "\u2581berperang": 3127,
  "\u2581Young": 3128,
  "\u2581rich": 3129,
  "\u2581darimu": 3130,
  "And": 3131,
  "\u2581bersamamu": 3132,
  "\u2581pray": 3133,
  "\u2581mendengarnya": 3134,
  "\u2581therein": 3135,
  "\u2581Malam": 3136,
  "\u2581memberimu": 3137,
  "\u2581diketahui": 3138,
  "\u2581Oleh": 3139,
  "\u2581membicarakan": 3140,
  "\u2581jadikan": 3141,
  "\u2581complete": 3142,
  "\u2581powerful": 3143,
  "\u2581English": 3144,
  "\u2581feelings": 3145,
  "\u2581General": 3146,
  "\u2581pendapat": 3147,
  "\u2581Ali": 3148,
  "\u2581pasangan": 3149,
  "\u2581istimewa": 3150,
  "iman": 3151,
  "\u2581taste": 3152,
  "\u2581Ban": 3153,
  "bel": 3154,
  "\u2581istrinya": 3155,
  "\u2581memasuki": 3156,
  "\u2581Min": 3157,
  "\u2581tewas": 3158,
  "\u2581lokasi": 3159,
  "\u2581station": 3160,
  "\u2581risk": 3161,
  "\u2581decision": 3162,
  "\u2581membuktikan": 3163,
  "ban": 3164,
  "\u2581marry": 3165,
  "\u2581desa": 3166,
  "\u2581kamera": 3167,
  "dah": 3168,
  "\u2581escape": 3169,
  "\u2581received": 3170,
  "\u2581Siap": 3171,
  "ine": 3172,
  "\u2581setidaknya": 3173,
  "\u2581carry": 3174,
  "adalah": 3175,
  "\u2581partner": 3176,
  "\u2581nation": 3177,
  "\u2581strange": 3178,
  "\u2581perhaps": 3179,
  "\u2581visit": 3180,
  "\u2581eight": 3181,
  "\u2581sepuluh": 3182,
  "\u2581seconds": 3183,
  "\u2581Chris": 3184,
  "\u2581charge": 3185,
  "\u2581Has": 3186,
  "\u2581Saul": 3187,
  "\u2581mengembalikan": 3188,
  "\u2581Before": 3189,
  "\u2581Za": 3190,
  "\u2581smart": 3191,
  "\u2581memegang": 3192,
  "zi": 3193,
  "\u2581window": 3194,
  "af": 3195,
  "\u2581bersenang": 3196,
  "\u2581tired": 3197,
  "\u2581kondisi": 3198,
  "\u2581prove": 3199,
  "\u2581Harus": 3200,
  "\u2581Ko": 3201,
  "\u2581anggur": 3202,
  "\u2581kelak": 3203,
  "\u2581table": 3204,
  "\u2581language": 3205,
  "\u2581bertahun": 3206,
  "\u2581pahlawan": 3207,
  "\u2581luka": 3208,
  "\u2581address": 3209,
  "pada": 3210,
  "\u2581dinding": 3211,
  "\u2581wonderful": 3212,
  "\u2581Con": 3213,
  "\u2581Ny": 3214,
  "\u2581fellow": 3215,
  "\u2581tunduk": 3216,
  "\u2581mengutus": 3217,
  "asi": 3218,
  "\u2581missed": 3219,
  "\u2581seekor": 3220,
  "\u2581verily": 3221,
  "\u2581belas": 3222,
  "\u2581melupakan": 3223,
  "\u2581sub": 3224,
  "\u2581diterima": 3225,
  "\u2581agree": 3226,
  "\u2581menghubungi": 3227,
  "\u2581Ibrahim": 3228,
  "\u2581membalas": 3229,
  "ary": 3230,
  "\u2581sell": 3231,
  "\u2581lelah": 3232,
  "\u2581lies": 3233,
  "\u2581berusia": 3234,
  "\u2581places": 3235,
  "\u2581unless": 3236,
  "\u2581wind": 3237,
  "su": 3238,
  "\u2581kayu": 3239,
  "\u2581Tanpa": 3240,
  "\u2581seolah": 3241,
  "\u2581Tepat": 3242,
  "\u2581star": 3243,
  "\u2581pandangan": 3244,
  "\u2581clothes": 3245,
  "\u2581Bumi": 3246,
  "My": 3247,
  "\u2581sejauh": 3248,
  "\u2581Kecuali": 3249,
  "\u2581buta": 3250,
  "\u2581hantu": 3251,
  "\u2581lapar": 3252,
  "\u2581memohon": 3253,
  "\u2581istirahat": 3254,
  "\u2581persen": 3255,
  "\u2581result": 3256,
  "\u2581appreciate": 3257,
  "ses": 3258,
  "\u25814.": 3259,
  "\u2581accident": 3260,
  "\u2581izin": 3261,
  "\u2581namamu": 3262,
  "ron": 3263,
  "\u2581berdosa": 3264,
  "mp": 3265,
  "\u2581Setan": 3266,
  "\u2581menghargai": 3267,
  "\u2581sedih": 3268,
  "\u2581berjuang": 3269,
  "\u2581Brother": 3270,
  "\u2581Yahweh": 3271,
  "\u2581mengurus": 3272,
  "\u2581dikehendaki": 3273,
  "\u2581menyebut": 3274,
  "\u2581isi": 3275,
  "\u2581Han": 3276,
  "po": 3277,
  "\u2581century": 3278,
  "\u2581hidupmu": 3279,
  "\u2581mem": 3280,
  "\u2581hei": 3281,
  "\u2581modern": 3282,
  "\u2581Ni": 3283,
  "\u2581ball": 3284,
  "pan": 3285,
  "\u258160": 3286,
  "\u2581rain": 3287,
  "\u2581Dude": 3288,
  "\u2581mundur": 3289,
  "\u2581melepaskan": 3290,
  "\u2581tersisa": 3291,
  "\u2581talked": 3292,
  "\u2581Alright": 3293,
  "\u2581mess": 3294,
  "\u2581kesulitan": 3295,
  "\u2581plane": 3296,
  "\u2581Barry": 3297,
  "\u2581blue": 3298,
  "\u2581totally": 3299,
  "\u2581aturan": 3300,
  "\u2581raised": 3301,
  "\u2581operasi": 3302,
  "\u2581error": 3303,
  "\u2581Check": 3304,
  "\u2581kerusakan": 3305,
  "\u2581membuang": 3306,
  "main": 3307,
  "\u2581Woo": 3308,
  "\u2581Didn": 3309,
  "\u2581toward": 3310,
  "\u2581further": 3311,
  "\u2581Hidup": 3312,
  "\u2581coffee": 3313,
  "\u2581harm": 3314,
  "\u2581crime": 3315,
  "\u2581menyakiti": 3316,
  "\u2581peristiwa": 3317,
  "\u2581count": 3318,
  "\u2581hendaknya": 3319,
  "\u25810": 3320,
  "\u2581media": 3321,
  "op": 3322,
  "\u2581Such": 3323,
  "sel": 3324,
  "\u2581Many": 3325,
  "\u2581percent": 3326,
  "\u2581code": 3327,
  "ffff": 3328,
  "\u2581dibawa": 3329,
  "\u2581model": 3330,
  "\u2581apostle": 3331,
  "bu": 3332,
  "\u2581earlier": 3333,
  "\u2581Billy": 3334,
  "\u2581Presiden": 3335,
  "\u2581Bring": 3336,
  "\u2581gentlemen": 3337,
  "\u2581Ba": 3338,
  "\u2581blind": 3339,
  "\u2581written": 3340,
  "\u2581sitting": 3341,
  "\u2581kulihat": 3342,
  "\u2581walking": 3343,
  "\u2581memukul": 3344,
  "\u2581Prophet": 3345,
  "\u2581non": 3346,
  "pura": 3347,
  "\u2581Sun": 3348,
  "\u2581common": 3349,
  "6": 3350,
  "\u2581ancient": 3351,
  "\u2581sepenuhnya": 3352,
  "\u2581deny": 3353,
  "\u2581seks": 3354,
  "\u2581foot": 3355,
  "\u2581Suatu": 3356,
  "\u2581ice": 3357,
  "\u2581wilayah": 3358,
  "\u2581bersamaku": 3359,
  "\u2581Elena": 3360,
  "\u2581kopi": 3361,
  "\u2581pre": 3362,
  "\u2581Richard": 3363,
  "\u2581menyaksikan": 3364,
  "\u2581cop": 3365,
  "\u2581Jerman": 3366,
  "\u2581receive": 3367,
  "\u2581round": 3368,
  "\u2581Try": 3369,
  "\u2581mulut": 3370,
  "\u2581Queen": 3371,
  "\u2581sing": 3372,
  "\u2581warn": 3373,
  "\u2581tutup": 3374,
  "jalan": 3375,
  "\u2581killer": 3376,
  "\u2581animals": 3377,
  "Yeah": 3378,
  "\u2581itself": 3379,
  "\u2581hidupnya": 3380,
  "\u2581Apapun": 3381,
  "\u2581judge": 3382,
  "\u2581komputer": 3383,
  "\u2581DNA": 3384,
  "\u2581keluarganya": 3385,
  "\u2581showed": 3386,
  "\u2581Dapatkan": 3387,
  "\u2581tahan": 3388,
  "\u2581Masuk": 3389,
  "\u2581stick": 3390,
  "\u2581interested": 3391,
  "\u2581Dokter": 3392,
  "\u2581holy": 3393,
  "\u2581loves": 3394,
  "ph": 3395,
  "\u2581Is": 3396,
  "\u2581mengajar": 3397,
  "\u2581kesenangan": 3398,
  "hu": 3399,
  "\u2581beginning": 3400,
  "\u2581kupikir": 3401,
  "\u2581memperbaiki": 3402,
  "\u2581followed": 3403,
  "\u2581kabarmu": 3404,
  "\u2581sambil": 3405,
  "\u2581names": 3406,
  "\u2581ingkar": 3407,
  "\u2581rules": 3408,
  "\u2581Maria": 3409,
  "apaan": 3410,
  "\u2581returned": 3411,
  "\u2581pusat": 3412,
  "\u2581Sit": 3413,
  "\u2581buka": 3414,
  "\u2581pengalaman": 3415,
  "\u2581baju": 3416,
  "\u2581Kukira": 3417,
  "\u2581Park": 3418,
  "\u2581berikut": 3419,
  "time": 3420,
  "\u2581kemampuan": 3421,
  "\u2581Datang": 3422,
  "\u2581Ri": 3423,
  "\u2581hi": 3424,
  "\u2581Happy": 3425,
  "ner": 3426,
  "\u2581200": 3427,
  "\u2581Christmas": 3428,
  "\u2581rambut": 3429,
  "\u2581kumohon": 3430,
  "\u2581tanggal": 3431,
  "\u2581begini": 3432,
  "\u2581ragu": 3433,
  "con": 3434,
  "\u2581President": 3435,
  "\u2581patient": 3436,
  "\u2581Ne": 3437,
  "\u2581kelihatan": 3438,
  "\u2581gereja": 3439,
  "\u2581action": 3440,
  "\u2581Mekah": 3441,
  "\u2581sabar": 3442,
  "\u2581faithful": 3443,
  "\u2581tambahan": 3444,
  "\u2581failed": 3445,
  "gen": 3446,
  "\u2581definitely": 3447,
  "\u2581hurry": 3448,
  "\u2581mohon": 3449,
  "\u2581kehormatan": 3450,
  "\u2581memotong": 3451,
  "\u2581pembalasan": 3452,
  "\u2581Rick": 3453,
  "\u2581harga": 3454,
  "\u2581sapi": 3455,
  "\u2581unit": 3456,
  "rat": 3457,
  "\u2581feels": 3458,
  "\u2581tas": 3459,
  "\u2581garden": 3460,
  "\u2581Verily": 3461,
  "\u2581forgot": 3462,
  "\u2581Gadis": 3463,
  "\u2581truck": 3464,
  "\u2581membersihkan": 3465,
  "\u2581Po": 3466,
  "ud": 3467,
  "\u2581court": 3468,
  "\u2581yesterday": 3469,
  "\u2581allowed": 3470,
  "\u2581keturunan": 3471,
  "\u2581lingkungan": 3472,
  "\u2581energy": 3473,
  "\u2581kebun": 3474,
  "ong": 3475,
  "tra": 3476,
  "\u2581keterangan": 3477,
  "au": 3478,
  "\u2581however": 3479,
  "\u2581maju": 3480,
  "\u2581seat": 3481,
  "\u2581domba": 3482,
  "\u2581helping": 3483,
  "\u2581dying": 3484,
  "Do": 3485,
  "\u2581menyediakan": 3486,
  "\u2581gedung": 3487,
  "\u2581girlfriend": 3488,
  "\u2581project": 3489,
  "\u2581Ms": 3490,
  "\u2581cat": 3491,
  "\u2581matters": 3492,
  "\u2581kiss": 3493,
  "\u2581pertolongan": 3494,
  "\u2581sake": 3495,
  "\u2581Ed": 3496,
  "\u2581trip": 3497,
  "\u2581finished": 3498,
  "\u2581battle": 3499,
  "\u2581lembut": 3500,
  "\u2581bencana": 3501,
  "\u2581lo": 3502,
  "\u2581Chi": 3503,
  "\u2581angry": 3504,
  "\u2581meter": 3505,
  "\u2581sisa": 3506,
  "\u2581pleasure": 3507,
  "\u2581Luke": 3508,
  "if": 3509,
  "ira": 3510,
  "\u2581mengasihi": 3511,
  "\u2581terbunuh": 3512,
  "\u2581Meng": 3513,
  "uhan": 3514,
  "ER": 3515,
  "\u2581mukjizat": 3516,
  "\u2581belongs": 3517,
  "\u2581paper": 3518,
  "\u2581gods": 3519,
  "\u2581card": 3520,
  "\u2581hadapan": 3521,
  "\u2581Little": 3522,
  "\u2581mate": 3523,
  "ten": 3524,
  "\u2581mengendalikan": 3525,
  "\u2581pintunya": 3526,
  "\u2581Mac": 3527,
  "\u2581con": 3528,
  "bah": 3529,
  "\u2581Paman": 3530,
  "\u2581TO": 3531,
  "\u2581pukul": 3532,
  "\u2581Martin": 3533,
  "\u2581Tommy": 3534,
  "\u2581article": 3535,
  "\u2581berkat": 3536,
  "\u2581ta": 3537,
  "\u2581hero": 3538,
  "\u2581wine": 3539,
  "\u2581allow": 3540,
  "\u2581bersyukur": 3541,
  "\u2581Robert": 3542,
  "\u2581dare": 3543,
  "que": 3544,
  "\u2581Seharusnya": 3545,
  "\u2581sepertimu": 3546,
  "\u2581health": 3547,
  "\u2581hungry": 3548,
  "\u2581ribu": 3549,
  "\u2581beyond": 3550,
  "\u2581manfaat": 3551,
  "\u2581Kuharap": 3552,
  "\u2581menyentuh": 3553,
  "\u2581Bobby": 3554,
  "\u2581letter": 3555,
  "\u2581~": 3556,
  "\u2581due": 3557,
  "\u2581books": 3558,
  "\u2581Barang": 3559,
  "\u2581Tony": 3560,
  "\u2581ibunya": 3561,
  "Ini": 3562,
  "\u2581Sedikit": 3563,
  "FF": 3564,
  "\u2581dianggap": 3565,
  "line": 3566,
  "\u2581Carl": 3567,
  "but": 3568,
  "\u2581masalahnya": 3569,
  "\u2581band": 3570,
  "\u2581hasn": 3571,
  "\u2581lelaki": 3572,
  "\u2581samping": 3573,
  "\u2581menyerahkan": 3574,
  "\u2581size": 3575,
  "\u2581alami": 3576,
  "\u2581mengetahuinya": 3577,
  "\u2581White": 3578,
  "\u2581slow": 3579,
  "\u2581milikku": 3580,
  "\u2581Whoo": 3581,
  "\u2581Steve": 3582,
  "ism": 3583,
  "\u2581prepared": 3584,
  "\u2581mirip": 3585,
  "dar": 3586,
  "\u2581menghendaki": 3587,
  "\u2581computer": 3588,
  "\u2581seberapa": 3589,
  "nd": 3590,
  "\u2581sword": 3591,
  "\u2581energi": 3592,
  "\u2581held": 3593,
  "\u2581diluar": 3594,
  "\u2581asli": 3595,
  "\u2581ga": 3596,
  "\u2581Next": 3597,
  "\u2581cops": 3598,
  "\u2581memberinya": 3599,
  "\u2581search": 3600,
  "\u2581kotoran": 3601,
  "ilah": 3602,
  "\u2581Yep": 3603,
  "\u2581Sometimes": 3604,
  "\u2581fool": 3605,
  "\u2581interest": 3606,
  "\u2581malah": 3607,
  "\u2581Le": 3608,
  "\u2581fa": 3609,
  "\u2581jantung": 3610,
  "\u2581wearing": 3611,
  "IN": 3612,
  "\u2581Life": 3613,
  "\u2581berdasarkan": 3614,
  "\u2581menangani": 3615,
  "\u2581total": 3616,
  "\u2581willing": 3617,
  "\u2581Lex": 3618,
  "\u2581petugas": 3619,
  "\u2581Roma": 3620,
  "mon": 3621,
  "\u2581memimpin": 3622,
  "\u2581Bagi": 3623,
  "\u2581Jin": 3624,
  "\u2581States": 3625,
  "\u2581blame": 3626,
  "\u2581begin": 3627,
  "\u2581prajurit": 3628,
  "\u2581weapon": 3629,
  "AN": 3630,
  "\u2581Yu": 3631,
  "\u2581Nyonya": 3632,
  "\u2581track": 3633,
  "\u2581Sha": 3634,
  "\u2581honest": 3635,
  "\u2581Setidaknya": 3636,
  "\u2581kesepakatan": 3637,
  "\u2581pergilah": 3638,
  "\u2581tertawa": 3639,
  "\u2581berupaya": 3640,
  "\u2581pantai": 3641,
  "\u2581tanaman": 3642,
  "\u2581Uncle": 3643,
  "\u2581Turn": 3644,
  "utu": 3645,
  "\u2581Ar": 3646,
  "way": 3647,
  "\u2581kepercayaan": 3648,
  "ac": 3649,
  "\u2581holding": 3650,
  "\u2581sih": 3651,
  "\u2581Matthew": 3652,
  "\u2581difference": 3653,
  "\u2581Misalnya": 3654,
  "mata": 3655,
  "\u2581Apabila": 3656,
  "\u2581lay": 3657,
  "\u2581kacau": 3658,
  "\u25aa": 3659,
  "\u2581proses": 3660,
  "\u2581apart": 3661,
  "\u2581guard": 3662,
  "\u2581Bapak": 3663,
  "\u2581berterima": 3664,
  "\u2581smell": 3665,
  "\u2581War": 3666,
  "les": 3667,
  "\u2581private": 3668,
  "\u2581William": 3669,
  "\u2581silakan": 3670,
  "\u2581pengadilan": 3671,
  "\u2581provide": 3672,
  "\u2581Co": 3673,
  "ol": 3674,
  "\u2581interesting": 3675,
  "\u2581mempercayai": 3676,
  "\u2581rule": 3677,
  "\u2581Beritahu": 3678,
  "\u2581cast": 3679,
  "\u2581mendukung": 3680,
  "\u2581munafik": 3681,
  "\u2581Anything": 3682,
  "\u2581mengirimkan": 3683,
  "after": 3684,
  "\u2581burn": 3685,
  "\u2581kesehatan": 3686,
  "\u2581abadi": 3687,
  "\u2581sebanyak": 3688,
  "\u2581memandang": 3689,
  "\u2581fit": 3690,
  "\u2581kuasa": 3691,
  "\u2581perlindungan": 3692,
  "\u2581movie": 3693,
  "\u2581bau": 3694,
  "\u2581moral": 3695,
  "\u2581b": 3696,
  "\u2581tat": 3697,
  "\u2581Membuat": 3698,
  "\u2581Merci": 3699,
  "\u2581bastard": 3700,
  "ow": 3701,
  "\u2581waste": 3702,
  "\u2581mengambilnya": 3703,
  "\u2581Mar": 3704,
  "Anda": 3705,
  "\u2581raise": 3706,
  "\u2581upaya": 3707,
  "\u2581Bila": 3708,
  "\u2581Vi": 3709,
  "\u2581natural": 3710,
  "\u2581permintaan": 3711,
  "\u2581Too": 3712,
  "\u2581ceritakan": 3713,
  "\u2581diambil": 3714,
  "\u2581listening": 3715,
  "dis": 3716,
  "\u2581Johnny": 3717,
  "\u2581memory": 3718,
  "\u2581immediately": 3719,
  "ring": 3720,
  "\u2581tembak": 3721,
  "\u2581Tae": 3722,
  "\u2581menga": 3723,
  "\u2581simply": 3724,
  "\u2581turns": 3725,
  "\u2581Chief": 3726,
  "\u2581draw": 3727,
  "\u2581joy": 3728,
  "ina": 3729,
  "ram": 3730,
  "\u2581Tutup": 3731,
  "\u2581survive": 3732,
  "\u2581Mulai": 3733,
  "\u2581Tu": 3734,
  "\u2581weapons": 3735,
  "\u2581berlari": 3736,
  "\u2581Long": 3737,
  "\u2581impossible": 3738,
  "\u2581mengharapkan": 3739,
  "\u2581Jake": 3740,
  "\u2581sad": 3741,
  "\u2581greater": 3742,
  "\u2581nenek": 3743,
  "\u2581memberiku": 3744,
  "kat": 3745,
  "\u2581Jason": 3746,
  "\u2581bom": 3747,
  "\u2581Kemana": 3748,
  "\u2581Phil": 3749,
  "ass": 3750,
  "\u2581membantuku": 3751,
  "\u2581speaking": 3752,
  "\u2581warga": 3753,
  "\u2581kursi": 3754,
  "\u2581menari": 3755,
  "\u2581hubungannya": 3756,
  "\u2581Firman": 3757,
  "\u2581torment": 3758,
  "\u2581ho": 3759,
  "\u2581Cari": 3760,
  "\u2581value": 3761,
  "\u2581berteriak": 3762,
  "\u2581image": 3763,
  "sek": 3764,
  "\u2581spoke": 3765,
  "\u2581wisdom": 3766,
  "\u2581Ayahmu": 3767,
  "\u2581machine": 3768,
  "\u00f6": 3769,
  "\u2581luas": 3770,
  "\u2581darinya": 3771,
  "\u2581Ji": 3772,
  "\u2581eating": 3773,
  "\u2581teacher": 3774,
  "\u2581utusan": 3775,
  "vi": 3776,
  "\u2581utk": 3777,
  "\u2581semangat": 3778,
  "\u2581sins": 3779,
  "\u2581kebohongan": 3780,
  "\u2581mematikan": 3781,
  "\u2581sudut": 3782,
  "\u2581Jepang": 3783,
  "\u2581memelihara": 3784,
  "\u2581pelacur": 3785,
  "\u2581pengikut": 3786,
  "\u2581membakar": 3787,
  "\u2581temanmu": 3788,
  "\u2581latihan": 3789,
  "\u2581sehari": 3790,
  "\u2581kalangan": 3791,
  "\u2581memberitahuku": 3792,
  "\u2581worst": 3793,
  "\u2581Joseph": 3794,
  "\u2581jari": 3795,
  "lam": 3796,
  "\u25817.": 3797,
  "\u2581Terus": 3798,
  "\u2581condition": 3799,
  "\u2581menyakitkan": 3800,
  "una": 3801,
  "\u2581store": 3802,
  "\u2581ah": 3803,
  "\u2581green": 3804,
  "\u2581Rusia": 3805,
  "\u2581alright": 3806,
  "tal": 3807,
  "\u2581bu": 3808,
  "\u2581iya": 3809,
  "\u2581bangunan": 3810,
  "\u2581firman": 3811,
  "\u2581kebutuhan": 3812,
  "\u2581led": 3813,
  "jo": 3814,
  "\u2581tunjukkan": 3815,
  "\u2581melaksanakan": 3816,
  "\u2581menentukan": 3817,
  "\u2581Kepala": 3818,
  "\u2581mempelajari": 3819,
  "\u2581shows": 3820,
  "\u2581caused": 3821,
  "\u2581huge": 3822,
  "\u2581text": 3823,
  "\u2581bought": 3824,
  "\u2581dreams": 3825,
  "dalam": 3826,
  "\u2581likely": 3827,
  "\u2581militer": 3828,
  "\u2581bersembunyi": 3829,
  "\u2581milikmu": 3830,
  "\u2581Anyway": 3831,
  "\u2581aware": 3832,
  "\u2581closer": 3833,
  "\u2581Chuck": 3834,
  "\u2581Internet": 3835,
  "\u2581starting": 3836,
  "\u2581stuck": 3837,
  "\u2581suku": 3838,
  "ous": 3839,
  "\u2581Chloe": 3840,
  "\u2581kotor": 3841,
  "\u2581West": 3842,
  "\u2581katanya": 3843,
  "\u2581Arab": 3844,
  "\u2581keeping": 3845,
  "\u2581duty": 3846,
  "\u2581knowing": 3847,
  "\u2581South": 3848,
  "\u2581belong": 3849,
  "\u2581skin": 3850,
  "\u2581Tentang": 3851,
  "Jangan": 3852,
  "\u2581kingdom": 3853,
  "\u2581avoid": 3854,
  "\u2581mention": 3855,
  "\u2581boyfriend": 3856,
  "\u2581innocent": 3857,
  "\u25813,": 3858,
  "\u2581Serikat": 3859,
  "ullah": 3860,
  "\u2581dendam": 3861,
  "\u2581Selalu": 3862,
  "\u2581Jacob": 3863,
  "\u2581penjelasan": 3864,
  "cha": 3865,
  "har": 3866,
  "\u2581Juga": 3867,
  "\u2581Another": 3868,
  "\u2581mental": 3869,
  "\u2581spread": 3870,
  "\u2581Baby": 3871,
  "\u2581menanyakan": 3872,
  "\u2581especially": 3873,
  "\u2581college": 3874,
  "\u2581pernyataan": 3875,
  "\u2581sengaja": 3876,
  "\u2581Honey": 3877,
  "\u2581peluru": 3878,
  "\u2581prinsip": 3879,
  "\u2581obey": 3880,
  "\u2581gue": 3881,
  "don": 3882,
  "\u2581nature": 3883,
  "vo": 3884,
  "\u2581keuntungan": 3885,
  "\u2581mulia": 3886,
  "ap": 3887,
  "\u2581tangga": 3888,
  "\u2581terjebak": 3889,
  "\u2581Ex": 3890,
  "\u2581Amanda": 3891,
  "\u2581China": 3892,
  "\u2581Emma": 3893,
  "ance": 3894,
  "\u2581Somebody": 3895,
  "\u2581sekalian": 3896,
  "\u2581membinasakan": 3897,
  "\u2581Kill": 3898,
  "\u2581terkejut": 3899,
  "\u2581opportunity": 3900,
  "\u2581wise": 3901,
  "\u2581training": 3902,
  "\u2581bersamanya": 3903,
  "\u2581favorite": 3904,
  "\u2581nyawa": 3905,
  "\u2581arms": 3906,
  "\u2581files": 3907,
  "\u2581Rose": 3908,
  "\u2581mengangkat": 3909,
  "\u2581penyihir": 3910,
  "\u2581kode": 3911,
  "\u2581seraya": 3912,
  "\u2581parah": 3913,
  "\u2581Up": 3914,
  "\u2581pacar": 3915,
  "\u2581copy": 3916,
  "let": 3917,
  "\u2581price": 3918,
  "\u2581Bi": 3919,
  "\u2581Kate": 3920,
  "\u2581While": 3921,
  "\u2581utara": 3922,
  "\u2581Lupakan": 3923,
  "\u2581membawamu": 3924,
  "\u2581Persetan": 3925,
  "\u2581AS": 3926,
  "\u2581justice": 3927,
  "\u2581kegelapan": 3928,
  "\u2581memenangkan": 3929,
  "\u2581Simon": 3930,
  "\u2581sa": 3931,
  "\u2581Thomas": 3932,
  "\u2581delapan": 3933,
  "\u2581dibutuhkan": 3934,
  "\u2581biru": 3935,
  "\u2581drunk": 3936,
  "\u2581greatest": 3937,
  "\u2581speed": 3938,
  "\u2581jelek": 3939,
  "\u2581Tidakkah": 3940,
  "\u2581angel": 3941,
  "\u2581appointed": 3942,
  "\u2581advice": 3943,
  "\u2581penjahat": 3944,
  "\u2581kekerasan": 3945,
  "\u2581asal": 3946,
  "\u2581terbakar": 3947,
  "\u2581terasa": 3948,
  "\u2581Had": 3949,
  "\u2581Although": 3950,
  "\u2581Tahan": 3951,
  "\u2581Namaku": 3952,
  "\u2581mengajarkan": 3953,
  "bagi": 3954,
  "\u2581enemies": 3955,
  "\u2581pulau": 3956,
  "\u2581thus": 3957,
  "\u2581Pencipta": 3958,
  "\u2581danger": 3959,
  "\u2581uangnya": 3960,
  "\u2581ucapan": 3961,
  "\u00e9": 3962,
  "\u2581Maksudmu": 3963,
  "\u2581truk": 3964,
  "\u2581benefit": 3965,
  "\u2581race": 3966,
  ".../": 3967,
  "\u2581source": 3968,
  "\u2581North": 3969,
  "\u2581surprise": 3970,
  "\u2581Van": 3971,
  "\u2581steal": 3972,
  "\u2581sia": 3973,
  "\u2581g": 3974,
  "\u25818.": 3975,
  "\u2581bapak": 3976,
  "\u2581match": 3977,
  "\u2581scene": 3978,
  "\u2581hatinya": 3979,
  "\u2581stars": 3980,
  "\u2581Hu": 3981,
  "\u2581kejam": 3982,
  "\u2581tanggung": 3983,
  "\u2581proof": 3984,
  "*": 3985,
  "\u2581Yerusalem": 3986,
  "\u2581sanggup": 3987,
  "che": 3988,
  "\u2581wicked": 3989,
  "\u2581village": 3990,
  "\u2581excuse": 3991,
  "kal": 3992,
  "\u2581tukang": 3993,
  "\u2581Pa": 3994,
  "\u2581ajaran": 3995,
  "ker": 3996,
  "\u2581Bung": 3997,
  "\u2581camera": 3998,
  "\u2581dress": 3999,
  "\u2581church": 4000,
  "kar": 4001,
  "\u2581arm": 4002,
  "\u2581Boy": 4003,
  "\u2581Jerusalem": 4004,
  "\u2581arti": 4005,
  "\u2581angka": 4006,
  "\u258112.": 4007,
  "\u2581hearing": 4008,
  "\u2581Cara": 4009,
  "\u2581jump": 4010,
  "\u2581Jam": 4011,
  "\u2581Five": 4012,
  "\u2581universe": 4013,
  "\u2581access": 4014,
  "\u2581quit": 4015,
  "\u2581owe": 4016,
  "\u2581rasakan": 4017,
  "\u2581suppose": 4018,
  "\u2581\"%": 4019,
  "\u2581treat": 4020,
  "\u2581double": 4021,
  "\u258121": 4022,
  "If": 4023,
  "\u2581anti": 4024,
  "\u2581High": 4025,
  "\u2581Know": 4026,
  "\u2581Nuh": 4027,
  "\u2581melanjutkan": 4028,
  "\u2581board": 4029,
  "\u2581diperlukan": 4030,
  "\u2581putting": 4031,
  "\u2581(1)": 4032,
  "\u2581bagai": 4033,
  "\u2581lampu": 4034,
  "X": 4035,
  "\u2581Find": 4036,
  "\u2581term": 4037,
  "\u2581pengacara": 4038,
  "\u2581Bangun": 4039,
  "\u2581revelation": 4040,
  "\u2581tough": 4041,
  "jin": 4042,
  "\u2581Ibuku": 4043,
  "\u2581persis": 4044,
  "\u2581van": 4045,
  "\u2581orders": 4046,
  "\u2581clearly": 4047,
  "\u2581Eropa": 4048,
  "\u2581club": 4049,
  "karena": 4050,
  "\u2581Sekali": 4051,
  "\u2581pressure": 4052,
  "\u2581Perhatikan": 4053,
  "\u2581loving": 4054,
  "Q": 4055,
  "Jika": 4056,
  "\u2581Ask": 4057,
  "\u2581Pro": 4058,
  "\u2581astray": 4059,
  "\u2581neck": 4060,
  "cu": 4061,
  "\u2581tangannya": 4062,
  "\u2581animal": 4063,
  "kadang": 4064,
  "hid": 4065,
  "ex": 4066,
  "\u2581sekutu": 4067,
  "\u2581hole": 4068,
  "\u2581push": 4069,
  "\u2581usually": 4070,
  "\u2581Ten": 4071,
  "\u2581Demi": 4072,
  "\u2581berhati": 4073,
  "\u2581feed": 4074,
  "\u2581hatimu": 4075,
  "\u2581menyedihkan": 4076,
  "uk": 4077,
  "\u2581sahabat": 4078,
  "In": 4079,
  "\u2581Boss": 4080,
  "\u2581Noah": 4081,
  "tur": 4082,
  "\u2581En": 4083,
  "\u2581cross": 4084,
  "\u2581empty": 4085,
  "that": 4086,
  "\u2581understanding": 4087,
  "ek": 4088,
  "\u2581kucing": 4089,
  "\u2581menaruh": 4090,
  "\u2581mengalir": 4091,
  "\u2581Kadang": 4092,
  "\u2581Percayalah": 4093,
  "\u2581gigi": 4094,
  "\u2581perahu": 4095,
  "\u2581tekanan": 4096,
  "\u2581Yohanes": 4097,
  "\u2581cute": 4098,
  "\u2581hiding": 4099,
  "\u2581gaya": 4100,
  "\u2581Sementara": 4101,
  "\u2581remaja": 4102,
  "dy": 4103,
  "off": 4104,
  "\u2581Masa": 4105,
  "\u2581listrik": 4106,
  "\u2581pa": 4107,
  "ated": 4108,
  "\u2581berkumpul": 4109,
  "\u2581brings": 4110,
  "\u2581breath": 4111,
  "\u2581Shi": 4112,
  "\u2581Melihat": 4113,
  "\u2581kasar": 4114,
  "\u2581tempatnya": 4115,
  "ant": 4116,
  "\u2581sumpah": 4117,
  "\u2581Kota": 4118,
  "\u2581Terlalu": 4119,
  "\u2581bercinta": 4120,
  "til": 4121,
  "\u2581arrest": 4122,
  "meng": 4123,
  "tif": 4124,
  "had": 4125,
  "giving": 4126,
  "\u2581bigger": 4127,
  "\u2581seriously": 4128,
  "\u2581House": 4129,
  "\u2581medical": 4130,
  "Z": 4131,
  "\u2581issue": 4132,
  "\u2581melampaui": 4133,
  "sha": 4134,
  "\u2581Tampaknya": 4135,
  "\u2581jarak": 4136,
  "\u25816.": 4137,
  "\u2581500": 4138,
  "\u2581locked": 4139,
  "\u2581fakta": 4140,
  "\u2581usah": 4141,
  "hara": 4142,
  "\u2581bijaksana": 4143,
  "\u2581creation": 4144,
  "dosa": 4145,
  "\u2581Trust": 4146,
  "\u2581besides": 4147,
  "\u2581Petrus": 4148,
  "\u2581menghindari": 4149,
  "\u2581awak": 4150,
  "\u2581Afrika": 4151,
  "\u2581toilet": 4152,
  "atau": 4153,
  "\u2581Du": 4154,
  "\u2581dinas": 4155,
  "\u2581everywhere": 4156,
  "\u2581suffering": 4157,
  "field": 4158,
  "\u2581Lima": 4159,
  "\u2581pedang": 4160,
  "\u2581wealth": 4161,
  "\u2581Roger": 4162,
  "\u2581ukuran": 4163,
  "olah": 4164,
  "\u2581decide": 4165,
  "\u2581forgiveness": 4166,
  "\u2581Doctor": 4167,
  "\u2581tes": 4168,
  "\u2581Mc": 4169,
  "\u2581berlalu": 4170,
  "berhala": 4171,
  "huh": 4172,
  "\u2581arrived": 4173,
  "\u2581sepatu": 4174,
  "\u2581kenyataan": 4175,
  "\u2581tea": 4176,
  "\u2581process": 4177,
  "\u2581authority": 4178,
  "\u2581practice": 4179,
  "ence": 4180,
  "\u2581Wa": 4181,
  "\u2581admit": 4182,
  "\u2581menawarkan": 4183,
  "tic": 4184,
  "\u2581Arthur": 4185,
  "\u2581Kawan": 4186,
  "\u2581dijadikan": 4187,
  "\u2581Korea": 4188,
  "\u2581Stefan": 4189,
  "\u2581base": 4190,
  "\u2581mountains": 4191,
  "\u2581rakyat": 4192,
  "\u2581Pete": 4193,
  "\u258132": 4194,
  "\u2581kakak": 4195,
  "\u2581lanjut": 4196,
  "\u2581penderitaan": 4197,
  "\u2581including": 4198,
  "\u2581mengampuni": 4199,
  "\u2581mencegah": 4200,
  "\u2581lengkap": 4201,
  "\u2581warning": 4202,
  "my": 4203,
  "\u2581memerlukan": 4204,
  "\u2581Brian": 4205,
  "\u2581hijau": 4206,
  "\u2581Forget": 4207,
  "\u2581damai": 4208,
  "\u2581sacrifice": 4209,
  "\u2581tembakan": 4210,
  "\u2581anakmu": 4211,
  "\u2581gunanya": 4212,
  "ise": 4213,
  "\u2581writing": 4214,
  "\u2581Kevin": 4215,
  "\u2581bakar": 4216,
  "\u2581sebut": 4217,
  "\u2581ladies": 4218,
  "\u2581deliver": 4219,
  "\u2581kebiasaan": 4220,
  "\u2581membahas": 4221,
  "st": 4222,
  "\u2581seminggu": 4223,
  "\u2581Kemarilah": 4224,
  "\u2581meyakinkan": 4225,
  "\u2581ka": 4226,
  "\u2581memerintahkan": 4227,
  "\u2581Want": 4228,
  "\u2581loss": 4229,
  "\u2581members": 4230,
  "\u258128": 4231,
  "\u2581seorangpun": 4232,
  "\u2581crap": 4233,
  "\u2581river": 4234,
  "\u2581uncle": 4235,
  "\u2581menetapkan": 4236,
  "\u2581beli": 4237,
  "tes": 4238,
  "\u2581rumahnya": 4239,
  "\u2581kebahagiaan": 4240,
  "\u2581Hang": 4241,
  "\u2581spot": 4242,
  "\u2581weak": 4243,
  "\u2581ikuti": 4244,
  "\u2581jalur": 4245,
  "\u2581perbedaan": 4246,
  "\u2581roti": 4247,
  "\u2581pisau": 4248,
  "\u2581Lagi": 4249,
  "\u2581mengingatkan": 4250,
  "\u2581global": 4251,
  "\u2581status": 4252,
  "\u2581ujian": 4253,
  "\u2581ganti": 4254,
  "\u2581penghuni": 4255,
  "\u2581Won": 4256,
  "\u2581alamat": 4257,
  "\u2581pertempuran": 4258,
  "\u2581Were": 4259,
  "\u2581guilty": 4260,
  "\u2581kencan": 4261,
  "\u2581tenggelam": 4262,
  "\u2581responsible": 4263,
  "\u2581Grace": 4264,
  "sifat": 4265,
  "\u2581Charles": 4266,
  "\u2581taman": 4267,
  "\u2581Manusia": 4268,
  "\u2581several": 4269,
  "fu": 4270,
  "\u2581Tahun": 4271,
  "\u2581Street": 4272,
  "\u2581island": 4273,
  "\u2581asshole": 4274,
  "\u2581bos": 4275,
  "\u2581panggil": 4276,
  "\u2581darkness": 4277,
  "\u2581driving": 4278,
  "\u2581students": 4279,
  "55": 4280,
  "\u2581keadilan": 4281,
  "\u2581memperingatkan": 4282,
  "\u2581parts": 4283,
  "\u2581flight": 4284,
  "\u2581menakutkan": 4285,
  "\u2581bomb": 4286,
  "\u2581mengunjungi": 4287,
  "\u2581officer": 4288,
  "\u25819.": 4289,
  "\u2581Natal": 4290,
  "\u2581mentioned": 4291,
  "\u2581photo": 4292,
  "\u2581minyak": 4293,
  "\u2581seni": 4294,
  "\u2581bodies": 4295,
  "\u2581stories": 4296,
  "\u2581concerning": 4297,
  "\u2581Therefore": 4298,
  "\u2581painful": 4299,
  "\u2581Samuel": 4300,
  "\u2581fully": 4301,
  "\u2581lah": 4302,
  "\u2581kue": 4303,
  "\u2581Gu": 4304,
  "\u2581gay": 4305,
  "\u2581biaya": 4306,
  "\u2581faces": 4307,
  "\u2581pedih": 4308,
  "\u2581pertandingan": 4309,
  "\u2581kering": 4310,
  "\u2581Kini": 4311,
  "\u2581semalam": 4312,
  "\u2581iblis": 4313,
  "\u2581berisi": 4314,
  "\u2581dollars": 4315,
  "\u2581suffer": 4316,
  "\u2581camp": 4317,
  "\u2581deserve": 4318,
  "\u2581hendaklah": 4319,
  "\u2581Cina": 4320,
  "\u2581recognize": 4321,
  "RA": 4322,
  "\u2581binasa": 4323,
  "\u2581provided": 4324,
  "\u2581Sedang": 4325,
  "\u2581Mengerti": 4326,
  "qui": 4327,
  "\u2581Eddie": 4328,
  "\u2581military": 4329,
  "\u2581mengatasi": 4330,
  "\u2581fat": 4331,
  "\u2581proyek": 4332,
  "lon": 4333,
  "\u2581berkembang": 4334,
  "\u2581roll": 4335,
  "\u2581Damon": 4336,
  "\u2581menentang": 4337,
  "\u2581mempertahankan": 4338,
  "\u2581memasukkan": 4339,
  "old": 4340,
  "\u2581changes": 4341,
  "\u2581jail": 4342,
  "\u2581konyol": 4343,
  "\u2581Fi": 4344,
  "\u2581bertobat": 4345,
  "\u2581patut": 4346,
  "\u2581selamatkan": 4347,
  "\u2581drinking": 4348,
  "\u2581kuno": 4349,
  "\u2581fuckin": 4350,
  "\u2581penolong": 4351,
  "\u2581fathers": 4352,
  "\u2581berlangsung": 4353,
  "\u2581journey": 4354,
  "\u2581chief": 4355,
  "\u2581Ugh": 4356,
  "\u2581menyebutnya": 4357,
  "\u2581warm": 4358,
  "\u2581bersedia": 4359,
  "\u2581periksa": 4360,
  "\u2581membela": 4361,
  "\u2581numbers": 4362,
  "\u2581meaning": 4363,
  "\u2581guns": 4364,
  "bukti": 4365,
  "tik": 4366,
  "\u2581agent": 4367,
  "\u2581lunch": 4368,
  "\u2581fill": 4369,
  "\u2581membayangkan": 4370,
  "\u2581notice": 4371,
  "\u2581pure": 4372,
  "\u2581Sal": 4373,
  "\u2581Sebaliknya": 4374,
  "\u2581Besar": 4375,
  "\u2581speech": 4376,
  "kh": 4377,
  "\u2581Sheriff": 4378,
  "\u2581apartment": 4379,
  "\u2581birth": 4380,
  "mar": 4381,
  "\u2581Jews": 4382,
  "\u2581tells": 4383,
  "\u2581Yunani": 4384,
  "\u2581Star": 4385,
  "\u2581nine": 4386,
  "\u2581Yi": 4387,
  "\u2581saudari": 4388,
  "\u2581grab": 4389,
  "\u2581happiness": 4390,
  "\u2581bir": 4391,
  "Katakan": 4392,
  "ali": 4393,
  "\u2581Lady": 4394,
  "\u2581keeps": 4395,
  "\u2581pasien": 4396,
  "\u2581rumahku": 4397,
  "\u2581bertambah": 4398,
  "\u2581heavy": 4399,
  "\u2581CIA": 4400,
  "\u2581lapangan": 4401,
  "\u2581guided": 4402,
  "\u2581horse": 4403,
  "\u2581menyebutkan": 4404,
  "\u2581alien": 4405,
  "\u2581matamu": 4406,
  "\u2581praise": 4407,
  "\u2581te": 4408,
  "\u2581Lari": 4409,
  "\u2581cost": 4410,
  "\u2581gak": 4411,
  "\u2581sesat": 4412,
  "Yang": 4413,
  "\u2581berbagi": 4414,
  "\u2581ra": 4415,
  "\u2581barat": 4416,
  "\u2581research": 4417,
  "\"!": 4418,
  "olok": 4419,
  "\u2581w": 4420,
  "\u2581kebangkitan": 4421,
  "\u2581available": 4422,
  "sta": 4423,
  "\u2581sleeping": 4424,
  "\u2581Ki": 4425,
  "\u2581menghalangi": 4426,
  "\u2581Aw": 4427,
  "\u2581Santa": 4428,
  "\u2581bertarung": 4429,
  "\u2581twice": 4430,
  "\u2581istriku": 4431,
  "\u2581keyakinan": 4432,
  "\u2581narkoba": 4433,
  "\u2581weight": 4434,
  "\u2581Ready": 4435,
  "\u2581darurat": 4436,
  "\u2581joke": 4437,
  "\u2581jaga": 4438,
  "\u2581dewa": 4439,
  "lai": 4440,
  "\u2581kertas": 4441,
  "\u2581Pan": 4442,
  "\u2581Haruskah": 4443,
  "\u2581Molly": 4444,
  "\u2581kegiatan": 4445,
  "\u2581hidden": 4446,
  "\u2581cerdas": 4447,
  "\u2581herself": 4448,
  "\u2581unbelievers": 4449,
  "\u2581According": 4450,
  "\u2581extra": 4451,
  "\u2581teknologi": 4452,
  "\u2581plans": 4453,
  "sem": 4454,
  "\u2581Wahai": 4455,
  "\u2581atasnya": 4456,
  "\u2581turut": 4457,
  "\u2581religious": 4458,
  "\u2581kick": 4459,
  "\u2581rid": 4460,
  "8": 4461,
  "\u2581IN": 4462,
  "\u2581mengawasi": 4463,
  "\u2581menggunakannya": 4464,
  "\u2581flesh": 4465,
  "\u2581opened": 4466,
  "ating": 4467,
  "\u2581biar": 4468,
  "\u2581location": 4469,
  "\u2581umur": 4470,
  "\u2581older": 4471,
  "\u2581Washington": 4472,
  "\u2581answers": 4473,
  "\u2581goddamn": 4474,
  "\u2581nafsu": 4475,
  "\u2581necessary": 4476,
  "nis": 4477,
  "\u2581stole": 4478,
  "\u2581buang": 4479,
  "\u2581liked": 4480,
  "ize": 4481,
  "\u2581berlebihan": 4482,
  "\u2581losing": 4483,
  "\u2581smile": 4484,
  "\u2581didalam": 4485,
  "\u2581oil": 4486,
  "\u2581Believe": 4487,
  "\u2581leaves": 4488,
  "\u2581badan": 4489,
  "\u2581bunch": 4490,
  "\u2581mengaku": 4491,
  "\u2581pembicaraan": 4492,
  "\u2581wahyu": 4493,
  "\u2581kepalanya": 4494,
  "\u2581sobat": 4495,
  "\u2581tight": 4496,
  "II": 4497,
  "\u2581figured": 4498,
  "\u2581menyingkirkan": 4499,
  "\u2581mountain": 4500,
  "\u2581pemerintahan": 4501,
  "\u2581penglihatan": 4502,
  "\u2581Dave": 4503,
  "\u2581keluargaku": 4504,
  "\u258111.": 4505,
  "\u2581Jesse": 4506,
  "\u2581timur": 4507,
  "\u2581nations": 4508,
  "\u2581maafkan": 4509,
  "\u2581penelitian": 4510,
  "\u2581drugs": 4511,
  "\u2581Namanya": 4512,
  "\u2581meletakkan": 4513,
  "\u2581awesome": 4514,
  "\u2581kedudukan": 4515,
  "ampun": 4516,
  "\u2581adik": 4517,
  "\u2581halnya": 4518,
  "\u2581suddenly": 4519,
  "\u2581tulis": 4520,
  "\u2581teh": 4521,
  "\u2581travel": 4522,
  "buru": 4523,
  "\u2581shop": 4524,
  "\u2581Car": 4525,
  "\u2581Cuma": 4526,
  "\u2581baca": 4527,
  "\u2581smoke": 4528,
  "\u2581Sebaiknya": 4529,
  "\u2581fokus": 4530,
  "\u2581istana": 4531,
  "Yes": 4532,
  "\u2581based": 4533,
  "\u2581setahun": 4534,
  "\u2581cash": 4535,
  "\u2581sore": 4536,
  "\u2581Tembak": 4537,
  "\u2581online": 4538,
  "Al": 4539,
  "\u2581Buku": 4540,
  "\u2581sombong": 4541,
  "\u2581inter": 4542,
  "\u2581French": 4543,
  "\u2581mendorong": 4544,
  "\u2581closed": 4545,
  "\u258126": 4546,
  "\u2581seemed": 4547,
  "\u2581Fa": 4548,
  "\u2581kebebasan": 4549,
  "\u2581conversation": 4550,
  "\u2581ill": 4551,
  "\u2581leg": 4552,
  "\u2581equal": 4553,
  "\u2581singkat": 4554,
  "\u2581staying": 4555,
  "\u258127": 4556,
  "\u2581besi": 4557,
  "\u2581heads": 4558,
  "\u2581bayar": 4559,
  "\u2581lt": 4560,
  "\u2581selatan": 4561,
  "tuan": 4562,
  "\u2581Four": 4563,
  "ov": 4564,
  "\u2581Pharaoh": 4565,
  "\u2581loyal": 4566,
  "\u2581gain": 4567,
  "Me": 4568,
  "\u2581pilih": 4569,
  "\u2581Keluarga": 4570,
  "\u2581diantara": 4571,
  "\u2581rumit": 4572,
  "\u2581devil": 4573,
  "\u2581trees": 4574,
  "\u2581Jones": 4575,
  "\u2581science": 4576,
  "\u2581Em": 4577,
  "\u2581false": 4578,
  "hkan": 4579,
  "\u2581Perang": 4580,
  "\u2581keselamatan": 4581,
  "\u2581teaching": 4582,
  "\u2581berumur": 4583,
  "\u2581thousands": 4584,
  "lat": 4585,
  "\u2581sukses": 4586,
  "\u2581disciples": 4587,
  "\u2581jaringan": 4588,
  "\u2581Ge": 4589,
  "\u2581Ibumu": 4590,
  "\u2581menguasai": 4591,
  "\u2581Beth": 4592,
  "\u2581Seluruh": 4593,
  "\u2581drug": 4594,
  "yah": 4595,
  "\u2581realized": 4596,
  "\u2581Soon": 4597,
  "\u2581tanganku": 4598,
  "gar": 4599,
  "\u2581Mundur": 4600,
  "\u2581major": 4601,
  "\u2581ribuan": 4602,
  "\u2581focus": 4603,
  "\u2581thoughts": 4604,
  "\u2581East": 4605,
  "\u2581medis": 4606,
  "\u258131": 4607,
  "\u2581memaksa": 4608,
  "set": 4609,
  "\u2581turning": 4610,
  "\u2581Lucy": 4611,
  "\u2581direction": 4612,
  "\u2581remind": 4613,
  "\u2581bringing": 4614,
  "rate": 4615,
  "\u2581babi": 4616,
  "\u2581considered": 4617,
  "\u2581pengaruh": 4618,
  "\u2581victim": 4619,
  "7": 4620,
  "\u2581Ratu": 4621,
  "\u2581hamil": 4622,
  "\u2581lift": 4623,
  "\u2581signal": 4624,
  "\u2581lepaskan": 4625,
  "\u2581correct": 4626,
  "\u2581families": 4627,
  "\u2581firm": 4628,
  "\u2581Alice": 4629,
  "\u2581Segera": 4630,
  "\u2581hangat": 4631,
  "\u2581ditangkap": 4632,
  "\u2581upset": 4633,
  "\u2581penulis": 4634,
  "\u2581terdahulu": 4635,
  "\u2581tersembunyi": 4636,
  "\u2581bersiap": 4637,
  "\u2581permission": 4638,
  "\u2581disease": 4639,
  "\u2581membenci": 4640,
  "\u2581wild": 4641,
  "\u2581ditentukan": 4642,
  "\u2581Bar": 4643,
  "\u2581Cut": 4644,
  "\u2581Jung": 4645,
  "\u2581April": 4646,
  "\u2581Hall": 4647,
  "\u2581berke": 4648,
  "\u2581jejak": 4649,
  "ani": 4650,
  "\u2581Sebentar": 4651,
  "\u2581memberitahukan": 4652,
  "with": 4653,
  "\u2581dipercaya": 4654,
  "\u2581lord": 4655,
  "\u2581similar": 4656,
  "\u2581CD": 4657,
  "\u2581hadir": 4658,
  "\u2581Rasanya": 4659,
  "hoo": 4660,
  "\u2581Hah": 4661,
  "\u2581meat": 4662,
  "\u2581hormat": 4663,
  "\u2581press": 4664,
  "war": 4665,
  "\u2581pekerja": 4666,
  "\u2581pemain": 4667,
  "\u258190": 4668,
  "ble": 4669,
  "ite": 4670,
  "\u2581tubuhnya": 4671,
  "\u2581Shin": 4672,
  "\u2581ayam": 4673,
  "ren": 4674,
  "\u2581stone": 4675,
  "\u2581tenaga": 4676,
  "\u2581Ryan": 4677,
  "\u2581keys": 4678,
  "\u2581Hampir": 4679,
  "\u2581melompat": 4680,
  "\u2581reached": 4681,
  "\u2581ri": 4682,
  "\u2581None": 4683,
  "bye": 4684,
  "\u2581suit": 4685,
  "law": 4686,
  "\u2581resmi": 4687,
  "\u2581tahanan": 4688,
  "ding": 4689,
  "\u2581alih": 4690,
  "\u2581memungkinkan": 4691,
  "\u2581Tinggalkan": 4692,
  "\u2581pictures": 4693,
  "\u2581absolutely": 4694,
  "pro": 4695,
  "\u2581Iblis": 4696,
  "\u2581mendekati": 4697,
  "\u2581chosen": 4698,
  "\u2581ears": 4699,
  "ala": 4700,
  "can": 4701,
  "\u2581Until": 4702,
  "\u258170": 4703,
  "\u2581politik": 4704,
  "barang": 4705,
  "\u2581Detective": 4706,
  "\u2581Victoria": 4707,
  "\u2581grand": 4708,
  "\u2581ministry": 4709,
  "tempat": 4710,
  "\u2581300": 4711,
  "\u2581perkawinan": 4712,
  "\u2581legs": 4713,
  "\u2581mantan": 4714,
  "\u2581Amy": 4715,
  "\u2581Mazmur": 4716,
  "\u2581filled": 4717,
  "\u2581bekas": 4718,
  "\u2581picked": 4719,
  "\u2581Jay": 4720,
  "\u2581Ted": 4721,
  "\u2581Kedua": 4722,
  "\u2581sosial": 4723,
  "\u2581ujung": 4724,
  "\u2581period": 4725,
  "\u258123": 4726,
  "\u2581kecepatan": 4727,
  "\u2581lock": 4728,
  "\u2581standar": 4729,
  "\u2581tongkat": 4730,
  "\u2581mobilnya": 4731,
  "\u2581menghormati": 4732,
  "uf": 4733,
  "\u2581terkena": 4734,
  "\u2581Ca": 4735,
  "\u2581berta": 4736,
  "\u2581summer": 4737,
  "\u2581Australia": 4738,
  "ana": 4739,
  "\u2581fucked": 4740,
  "\u2581lovely": 4741,
  "\u2581menghidupkan": 4742,
  "\u2581Te": 4743,
  "\u2581Maggie": 4744,
  "\u2581Tyler": 4745,
  "\u2581heran": 4746,
  "\u2581menaati": 4747,
  "car": 4748,
  "\u2581Asia": 4749,
  "\u2581community": 4750,
  "\u2581kelaparan": 4751,
  "\u2581menghapus": 4752,
  "\u2581Solomon": 4753,
  "\u2581derajat": 4754,
  "\u2581fate": 4755,
  "\u2581Bro": 4756,
  "\u2581Ken": 4757,
  "\u2581secure": 4758,
  "\u258114.": 4759,
  "\u2581material": 4760,
  "\u2581permukaan": 4761,
  "\u2581asa": 4762,
  "\u2581pelayan": 4763,
  "\u258112:": 4764,
  "\u2581Psalm": 4765,
  "\u2581menjalani": 4766,
  "\u2581responsibility": 4767,
  "\u2581original": 4768,
  "\u2581Aaron": 4769,
  "\u2581hoping": 4770,
  "\u2581Menurutku": 4771,
  "\u2581fresh": 4772,
  "our": 4773,
  "\u2581Bruce": 4774,
  "\u2581hatiku": 4775,
  "lalu": 4776,
  "\u2581karya": 4777,
  "\u2581beban": 4778,
  "\u2581diperintahkan": 4779,
  "ard": 4780,
  "\u2581keberuntungan": 4781,
  "\u2581ja": 4782,
  "tta": 4783,
  "\u2581Exactly": 4784,
  "\u2581dusta": 4785,
  "BAR": 4786,
  "\u2581general": 4787,
  "\u2581Without": 4788,
  "\u2581Disini": 4789,
  "\u2581bird": 4790,
  "\u2581pengertian": 4791,
  "\u2581effect": 4792,
  "\u2581fisik": 4793,
  "\u2581Ever": 4794,
  "\u2581property": 4795,
  "\u2581exist": 4796,
  "\u2581mahal": 4797,
  "\u2581anger": 4798,
  "\u2581kasihan": 4799,
  "\u2581patung": 4800,
  "\u2581Firaun": 4801,
  "\u2581add": 4802,
  "\u2581menghilangkan": 4803,
  "end": 4804,
  "\u2581trial": 4805,
  "\u2581turunkan": 4806,
  "\u2581Bunuh": 4807,
  "\u2581Catatan": 4808,
  "\u2581Kang": 4809,
  "\u2581robot": 4810,
  "year": 4811,
  "\u2581membentuk": 4812,
  "nik": 4813,
  "\u2581dust": 4814,
  "\u2581ketemu": 4815,
  "Saya": 4816,
  "\u2581majalah": 4817,
  "day": 4818,
  "\u2581tampan": 4819,
  "\u2581walked": 4820,
  "\u2581kudus": 4821,
  "\u2581slave": 4822,
  "\u2581tali": 4823,
  "\u2581dibangkitkan": 4824,
  "fe": 4825,
  "\u2581Green": 4826,
  "\u2581glory": 4827,
  "\u2581surprised": 4828,
  "\u2581tu": 4829,
  "par": 4830,
  "\u2581crew": 4831,
  "\u2581memberikannya": 4832,
  "wan": 4833,
  "\u2581fruit": 4834,
  "\u2581pelindung": 4835,
  "\u2581social": 4836,
  "gal": 4837,
  "\u2581yah": 4838,
  "him": 4839,
  "\u2581sembilan": 4840,
  "\u2581Fucking": 4841,
  "\u2581curse": 4842,
  "\u2581keluargamu": 4843,
  "\u2581kenikmatan": 4844,
  "\u2581states": 4845,
  "\u2581student": 4846,
  "\u2581berpura": 4847,
  "eng": 4848,
  "\u2581Utara": 4849,
  "\u2581accepted": 4850,
  "\u2581wives": 4851,
  "tha": 4852,
  "\u2581bayangkan": 4853,
  "\u2581bingung": 4854,
  "\u2581Detektif": 4855,
  "\u2581mengenakan": 4856,
  "ey": 4857,
  "\u258113.": 4858,
  "\u2581f": 4859,
  "\u2581berkuasa": 4860,
  "\u2581acting": 4861,
  "\u2581gotten": 4862,
  "\u2581ingatlah": 4863,
  "\u2581temple": 4864,
  "ee": 4865,
  "mail": 4866,
  "\u2581pemilik": 4867,
  "\u2581gerbang": 4868,
  "\u2581klub": 4869,
  "\u2581pregnant": 4870,
  "\u2581Hong": 4871,
  "\u2581menambahkan": 4872,
  "\u2581servant": 4873,
  "hidup": 4874,
  "\u2581crying": 4875,
  "\u2581rekaman": 4876,
  "\u2581silahkan": 4877,
  "\u258117.": 4878,
  "\u2581sekalipun": 4879,
  "\u2581sold": 4880,
  "\u2581Enough": 4881,
  "\u2581lambat": 4882,
  "wood": 4883,
  "\u2581dgn": 4884,
  "\u2581Easy": 4885,
  "\u2581IT": 4886,
  "That": 4887,
  "\u2581beauty": 4888,
  "\u2581president": 4889,
  "\u2581covenant": 4890,
  "\u2581fail": 4891,
  "\u2581Andy": 4892,
  "\u2581Selatan": 4893,
  "\u2581played": 4894,
  "\u2581tipe": 4895,
  "\u2581Stand": 4896,
  "\u2581lepas": 4897,
  "\u2581lawyer": 4898,
  "\u2581Joon": 4899,
  "\u2581kendali": 4900,
  "\u2581menu": 4901,
  "\u2581Sy": 4902,
  "\u2581beserta": 4903,
  "\u2581Mem": 4904,
  "\u2581Mommy": 4905,
  "\u2581susu": 4906,
  "\u2581Wah": 4907,
  "\u2581Except": 4908,
  "\u2581Bagian": 4909,
  "\u2581hubungi": 4910,
  "\u2581memilikinya": 4911,
  "\u2581belakangan": 4912,
  "\u2581ditimpa": 4913,
  "\u2581ternak": 4914,
  "\u2581imam": 4915,
  "\u2581Aren": 4916,
  "\u2581Putra": 4917,
  "\u2581wa": 4918,
  "\u2581Wi": 4919,
  "\u2581Ayat": 4920,
  "\u2581bukit": 4921,
  "\u2581Fu": 4922,
  "\u2581Ingatlah": 4923,
  "\u2581afternoon": 4924,
  "\u2581Besok": 4925,
  "\u2581Carter": 4926,
  "\u2581lied": 4927,
  "\u2581Down": 4928,
  "\u2581current": 4929,
  "\u2581fasik": 4930,
  "\u2581safety": 4931,
  "\u2581saudaraku": 4932,
  "\u2581Eun": 4933,
  "\u2581breathe": 4934,
  "dak": 4935,
  "\u2581glass": 4936,
  "\u2581walaupun": 4937,
  "\u258145": 4938,
  "\u2581emosi": 4939,
  "\u2581mengajak": 4940,
  "\u2581Seriously": 4941,
  "\u2581release": 4942,
  "\u2581x": 4943,
  "\u258180": 4944,
  "\u2581mengajukan": 4945,
  "\u2581berfungsi": 4946,
  "\u2581map": 4947,
  "\u2581mi": 4948,
  "\u2581nearly": 4949,
  "\u2581melaporkan": 4950,
  "\u2581penciptaan": 4951,
  "Why": 4952,
  "\u2581Lana": 4953,
  "\u2581valid": 4954,
  "\u2581badai": 4955,
  "\u2581betul": 4956,
  "\u2581sat": 4957,
  "\u2581kepentingan": 4958,
  "\u2581menerimanya": 4959,
  "\u2581subject": 4960,
  "\u2581Doc": 4961,
  "\u2581jalanan": 4962,
  "ever": 4963,
  "\u2581bullshit": 4964,
  "\u2581pemberi": 4965,
  "\u2581...\"": 4966,
  "\u2581freedom": 4967,
  "\u2581member": 4968,
  "\u2581pendek": 4969,
  "\u2581preaching": 4970,
  "\u2581Ethan": 4971,
  "\u2581Law": 4972,
  "\u2581Fred": 4973,
  "\u2581misalnya": 4974,
  "\u2581pieces": 4975,
  "rin": 4976,
  "\u2581Thou": 4977,
  "\u2581counsel": 4978,
  "\u2581kebetulan": 4979,
  "\u2581Eric": 4980,
  "\u2581rela": 4981,
  "\u25814,": 4982,
  "\u2581Ingin": 4983,
  "\u2581dukungan": 4984,
  "\u2581commit": 4985,
  "\u2581shooting": 4986,
  "olong": 4987,
  "\u2581Patrick": 4988,
  "\u2581ability": 4989,
  "\u2581games": 4990,
  "\u2581pelayanan": 4991,
  "\u2581California": 4992,
  "\u2581physical": 4993,
  "\u2581queen": 4994,
  "50": 4995,
  "\u2581gate": 4996,
  "\u2581gerakan": 4997,
  "\u2581dibawah": 4998,
  "\u2581perhatikan": 4999,
  "\u2581Sean": 5000,
  "\u2581bottom": 5001,
  "\u258116.": 5002,
  "\u2581memerintah": 5003,
  "\u2581teori": 5004,
  "\u25815,": 5005,
  "\u2581Finn": 5006,
  "\u2581Seberapa": 5007,
  "\u2581lelucon": 5008,
  "\u2581Shall": 5009,
  "\u2581Garden": 5010,
  "\u2581Jaga": 5011,
  "\u2581tongue": 5012,
  "\u2581covered": 5013,
  "\u2581presence": 5014,
  "\u2581wondering": 5015,
  "\u2581bermanfaat": 5016,
  "\u2581melihatku": 5017,
  "\u2581kuliah": 5018,
  "\u2581mendekat": 5019,
  "How": 5020,
  "\u2581heat": 5021,
  "\u2581Indian": 5022,
  "\u2581remove": 5023,
  "Laughter": 5024,
  "\u2581Way": 5025,
  "isi": 5026,
  "\u258111:": 5027,
  "\u2581answered": 5028,
  "\u2581Ro": 5029,
  "\u2581north": 5030,
  "\u2581u": 5031,
  "\u2581Clear": 5032,
  "\u2581bukankah": 5033,
  "tapi": 5034,
  "\u2581Louis": 5035,
  "\u2581shoes": 5036,
  "\u2581tertutup": 5037,
  "\u2581lenyap": 5038,
  "\u2581menghentikannya": 5039,
  "\u2581menjauh": 5040,
  "\u2581Kerja": 5041,
  "\u2581Pikirkan": 5042,
  "\u2581suaminya": 5043,
  "\u2581==": 5044,
  "\u2581souls": 5045,
  "\u2581ID": 5046,
  "Ada": 5047,
  "\u2581Pertanyaan": 5048,
  "\u2581menambah": 5049,
  "\u2581mencium": 5050,
  "\u2581soldiers": 5051,
  "\u2581Doesn": 5052,
  "\u2581Entah": 5053,
  "\u2581Six": 5054,
  "\u2581menyala": 5055,
  "yaitu": 5056,
  "\u2581Victor": 5057,
  "\u2581Cinta": 5058,
  "\u2581burning": 5059,
  "\u2581park": 5060,
  "\u2581Bajingan": 5061,
  "fur": 5062,
  "ized": 5063,
  "\u2581mo": 5064,
  "\u2581Children": 5065,
  "\u2581mempengaruhi": 5066,
  "\u2581chose": 5067,
  "\u2581perbuat": 5068,
  "\u2581Omong": 5069,
  "\u2581Q": 5070,
  "\u2581protection": 5071,
  "\u2581ghost": 5072,
  "\u2581tersesat": 5073,
  "\u2581flying": 5074,
  "\u2581emergency": 5075,
  "\u2581menimbulkan": 5076,
  "\u2581pal": 5077,
  "\u2581Cor": 5078,
  "\u2581Pi": 5079,
  "\u2581ditulis": 5080,
  "\u2581Jerry": 5081,
  "\u2581Super": 5082,
  "\u2581beer": 5083,
  "\u2581former": 5084,
  "\u2581houses": 5085,
  "ye": 5086,
  "\u2581ditetapkan": 5087,
  "\u2581knife": 5088,
  "tanya": 5089,
  "\u2581Klaus": 5090,
  "\u2581Old": 5091,
  "\u2581Truth": 5092,
  "OR": 5093,
  "\u2581Ti": 5094,
  "\u2581Bapa": 5095,
  "\u2581mencarinya": 5096,
  "\u2581prophet": 5097,
  "\u2581desires": 5098,
  "\u2581event": 5099,
  "\u2581seruan": 5100,
  "\u2581aktif": 5101,
  "Be": 5102,
  "\u258133": 5103,
  "\u2581corner": 5104,
  "\u2581Cat": 5105,
  "ts": 5106,
  "\u2581planning": 5107,
  "\u2581pasar": 5108,
  "je": 5109,
  "\u258110:": 5110,
  "\u2581Jae": 5111,
  "\u2581awan": 5112,
  "\u2581melahirkan": 5113,
  "\u2581atap": 5114,
  "\u2581ends": 5115,
  "\u2581flow": 5116,
  "\u2581role": 5117,
  "Mo": 5118,
  "\u2581du": 5119,
  "\u2581Kemari": 5120,
  "\u2581Putri": 5121,
  "\u2581Rock": 5122,
  "\u2581suspect": 5123,
  "lak": 5124,
  "\u2581familiar": 5125,
  "\u2581keparat": 5126,
  "\u2581leader": 5127,
  "duduk": 5128,
  "\u2581Professor": 5129,
  "\u2581hello": 5130,
  "\u2581pulled": 5131,
  "\u2581Read": 5132,
  "\u2581Roman": 5133,
  "\u2581mengancam": 5134,
  "\u2581telur": 5135,
  "\u2581darling": 5136,
  "tahu": 5137,
  "\u2581comfort": 5138,
  "com": 5139,
  "\u2581Secara": 5140,
  "\u2581Set": 5141,
  "ction": 5142,
  "\u2581Congratulations": 5143,
  "\u2581mengurangi": 5144,
  "\u2581sinyal": 5145,
  "\u2581strike": 5146,
  "\u2581cincin": 5147,
  "\u2581invited": 5148,
  "\u2581terutama": 5149,
  "\u2581State": 5150,
  "\u2581trick": 5151,
  "\u2581menelpon": 5152,
  "\u2581menutupi": 5153,
  "\u2581Masuklah": 5154,
  "\u2581favour": 5155,
  "ach": 5156,
  "\u2581Besides": 5157,
  "\u2581diciptakan": 5158,
  "ight": 5159,
  "\u2581Cho": 5160,
  "\u2581ilmuwan": 5161,
  "\u2581grateful": 5162,
  "\u2581Lisa": 5163,
  "\u2581sisters": 5164,
  "\u2581relax": 5165,
  "\u2581violence": 5166,
  "ship": 5167,
  "\u2581market": 5168,
  "\u2581r": 5169,
  "\u2581kepalamu": 5170,
  "\u2581kejutan": 5171,
  "\u2581terburuk": 5172,
  "\u2581tertulis": 5173,
  "\u2581Ram": 5174,
  "\u2581captain": 5175,
  "\u2581mulutmu": 5176,
  "\u2581chastise": 5177,
  "\u2581success": 5178,
  "\u2581Muslim": 5179,
  "ator": 5180,
  "\u2581lesson": 5181,
  "\u2581perak": 5182,
  "\u2581Luar": 5183,
  "\u2581Kedengarannya": 5184,
  "\u2581Resurrection": 5185,
  "fon": 5186,
  "nabi": 5187,
  "\u2581center": 5188,
  "\u2581laugh": 5189,
  "\u258129": 5190,
  "\u2581Hank": 5191,
  "\u2581menggambarkan": 5192,
  "\u2581sebaliknya": 5193,
  "\u25818,": 5194,
  "\u2581Ohh": 5195,
  "\u2581Tenanglah": 5196,
  "\u2581temui": 5197,
  "\u2581terhormat": 5198,
  "ara": 5199,
  "\u2581easier": 5200,
  "\u2581Janganlah": 5201,
  "\u2581countries": 5202,
  "\u2581baris": 5203,
  "\u2581roof": 5204,
  "\u2581apologize": 5205,
  "lia": 5206,
  "\u2581Annie": 5207,
  "\u2581blessings": 5208,
  "\u2581female": 5209,
  "\u2581Mexico": 5210,
  "\u2581faster": 5211,
  "\u2581merubah": 5212,
  "\u2581famous": 5213,
  "\u2581seksi": 5214,
  "\u2581peta": 5215,
  "\u2581Ladies": 5216,
  "RE": 5217,
  "\u2581Gi": 5218,
  "\u2581bantuanmu": 5219,
  "\u2581becomes": 5220,
  "\u2581entah": 5221,
  "\u2581Chinese": 5222,
  "\u2581sebaik": 5223,
  "ial": 5224,
  "ps": 5225,
  "\u2581concerned": 5226,
  "\u2581Makan": 5227,
  "\u2581gang": 5228,
  "\u2581menjatuhkan": 5229,
  "\u2581pelajari": 5230,
  "\u2581Soo": 5231,
  "\u2581bukannya": 5232,
  "Re": 5233,
  "\u2581amount": 5234,
  "\u2581bersabar": 5235,
  "\u2581finding": 5236,
  "\u2581Bank": 5237,
  "Hey": 5238,
  "\u2581alarm": 5239,
  "\u2581driver": 5240,
  "\u2581bidang": 5241,
  "cer": 5242,
  "\u2581Jenny": 5243,
  "\u2581Brengsek": 5244,
  "\u2581istrimu": 5245,
  "\u2581onto": 5246,
  "\u2581Buat": 5247,
  "\u2581judgment": 5248,
  "put": 5249,
  "\u2581padang": 5250,
  "\u2581powers": 5251,
  "ther": 5252,
  "\u2581menghina": 5253,
  "\u2581showing": 5254,
  "\u2581kewajiban": 5255,
  "\u2581nasib": 5256,
  "\u2581Cool": 5257,
  "\u2581kehabisan": 5258,
  "\u2581Kong": 5259,
  "\u2581nose": 5260,
  "For": 5261,
  "\u2581birds": 5262,
  "\u2581pertunjukan": 5263,
  "\u2581Ju": 5264,
  "\u2581dipilih": 5265,
  "\u2581beg": 5266,
  "\u2581Death": 5267,
  "\u2581offering": 5268,
  "\u2581Scriptures": 5269,
  "\u2581Use": 5270,
  "\u2581effort": 5271,
  "\u2581manifest": 5272,
  "\u2581matanya": 5273,
  "\u2581pekan": 5274,
  "Itu": 5275,
  "\u2581hasilnya": 5276,
  "\u2581jelaskan": 5277,
  "\u2581keberanian": 5278,
  "\u2581meledak": 5279,
  "\u2581menyiksa": 5280,
  "\u2581mighty": 5281,
  "Go": 5282,
  "\u2581cure": 5283,
  "\u2581expected": 5284,
  "\u2581jutaan": 5285,
  "\u2581reasons": 5286,
  "\u2581credit": 5287,
  "\u2581mengisi": 5288,
  "\u2581Follow": 5289,
  "yo": 5290,
  "\u2581Pull": 5291,
  "\u2581penerbangan": 5292,
  "\u2581regular": 5293,
  "\u2581kekayaan": 5294,
  "\u2581namaku": 5295,
  "\u2581Save": 5296,
  "tasi": 5297,
  "\u2581grew": 5298,
  "ray": 5299,
  "\u2581Ash": 5300,
  "\u2581Terimakasih": 5301,
  "\u2581meningkatkan": 5302,
  "\u2581angkat": 5303,
  "\u2581membebaskan": 5304,
  "tro": 5305,
  "\u2581Har": 5306,
  "\u2581Paradise": 5307,
  "\u2581fought": 5308,
  "\u2581Better": 5309,
  "\u2581Majesty": 5310,
  "\u2581Pat": 5311,
  "\u2581points": 5312,
  "\u2581angkasa": 5313,
  "\u2581Pagi": 5314,
  "\u2581bow": 5315,
  "\u2581fi": 5316,
  "\u25817:": 5317,
  "well": 5318,
  "\u2581Sea": 5319,
  "\u2581Talk": 5320,
  "\u2581jalang": 5321,
  "\u2581proper": 5322,
  "\u2581Kakak": 5323,
  "\u2581tuduhan": 5324,
  "tion": 5325,
  "\u2581dirty": 5326,
  "\u2581delivered": 5327,
  "nu": 5328,
  "\u2581bernyanyi": 5329,
  "\u2581fired": 5330,
  "\u2581nervous": 5331,
  "\u2581legal": 5332,
  "\u2581segar": 5333,
  "bahan": 5334,
  "\u2581Suci": 5335,
  "\u2581ca": 5336,
  "\u2581murdered": 5337,
  "\u2581damage": 5338,
  "\u2581appear": 5339,
  "\u2581Bay": 5340,
  "\u2581silver": 5341,
  "\u2581tdk": 5342,
  "\u2581dikirim": 5343,
  "\u2581dipakai": 5344,
  "\u2581Lily": 5345,
  "\u2581ideas": 5346,
  "\u2581Line": 5347,
  "\u2581em": 5348,
  "ists": 5349,
  "\u2581offered": 5350,
  "\u25816,": 5351,
  "\u2581Matius": 5352,
  "\u2581celana": 5353,
  "tar": 5354,
  "\u2581Close": 5355,
  "\u2581ki": 5356,
  "\u2581rise": 5357,
  "\u2581Kisah": 5358,
  "\u2581lokal": 5359,
  "\u2581Letnan": 5360,
  "\u2581menyesatkan": 5361,
  "\u2581sinar": 5362,
  "kamu": 5363,
  "\u2581Sebelumnya": 5364,
  "\u2581Snow": 5365,
  "\u2581kekacauan": 5366,
  "\u2581conduct": 5367,
  "\u2581Kan": 5368,
  "\u2581pencuri": 5369,
  "\u2581shame": 5370,
  "hubungan": 5371,
  "ide": 5372,
  "\u2581lautan": 5373,
  "\u2581dikembalikan": 5374,
  "\u2581mark": 5375,
  "ier": 5376,
  "lor": 5377,
  "sejumlah": 5378,
  "upaya": 5379,
  "\u2581Hukum": 5380,
  "\u2581Jackson": 5381,
  "\u2581block": 5382,
  "\u2581motor": 5383,
  "\u2581sending": 5384,
  "\u2581Police": 5385,
  "\u2581Ru": 5386,
  "\u2581behold": 5387,
  "\u2581connection": 5388,
  "\u2581menuntut": 5389,
  "\u2581memuji": 5390,
  "\u2581mustahil": 5391,
  "\u2581peralatan": 5392,
  "bal": 5393,
  "\u2581pack": 5394,
  "\u2581adikku": 5395,
  "\u2581aside": 5396,
  "\u2581Nathan": 5397,
  "\u2581Spanyol": 5398,
  "\u2581mama": 5399,
  "\u2581ibadat": 5400,
  "\u2581ponsel": 5401,
  "\u2581tikus": 5402,
  "Ha": 5403,
  "vin": 5404,
  "\u2581reports": 5405,
  "\u2581terlebih": 5406,
  "\u2581vision": 5407,
  "Mengapa": 5408,
  "\u2581anggap": 5409,
  "\u2581note": 5410,
  "head": 5411,
  "\u2581lihatlah": 5412,
  "\u2581vampir": 5413,
  "\u2581Awas": 5414,
  "\u2581Aye": 5415,
  "\u2581ne": 5416,
  "\u2581style": 5417,
  "\u2581results": 5418,
  "\u2581saran": 5419,
  "\u2581gangguan": 5420,
  "\u2581obviously": 5421,
  "ED": 5422,
  "\u2581Whoever": 5423,
  "\u2581cities": 5424,
  "\u2581kendaraan": 5425,
  "\u2581Isaac": 5426,
  "\u2581concern": 5427,
  "\u2581unta": 5428,
  "\u2581Africa": 5429,
  "\u2581sopan": 5430,
  "kin": 5431,
  "\u2581tipu": 5432,
  "\u2581yo": 5433,
  "\u2581dasarnya": 5434,
  "\u2581Kaki": 5435,
  "\u2581Agar": 5436,
  "bahwa": 5437,
  "not": 5438,
  "\u2581device": 5439,
  "\u2581dry": 5440,
  "\u2581tersedia": 5441,
  "Let": 5442,
  "sur": 5443,
  "\u2581Consider": 5444,
  "\u2581ketaatan": 5445,
  "ari": 5446,
  "\u2581operation": 5447,
  "\u2581split": 5448,
  "La": 5449,
  "\u2581Ikuti": 5450,
  "\u2581sekarat": 5451,
  "\u2581ended": 5452,
  "\u2581kindness": 5453,
  "\u2581lights": 5454,
  "\u2581merokok": 5455,
  "\u2581ular": 5456,
  "from": 5457,
  "gadis": 5458,
  "\u2581post": 5459,
  "ors": 5460,
  "\u2581mengagumkan": 5461,
  "\u2581stasiun": 5462,
  "\u2581Job": 5463,
  "\u2581patah": 5464,
  "\u2581asleep": 5465,
  "\u2581menangkapnya": 5466,
  "\u2581Home": 5467,
  "ny": 5468,
  "\u2581south": 5469,
  "God": 5470,
  "\u2581righteousness": 5471,
  "\u2581Maukah": 5472,
  "\u2581commanded": 5473,
  "\u2581Bonnie": 5474,
  "ious": 5475,
  "saya": 5476,
  "\u2581discovered": 5477,
  "\u2581increase": 5478,
  "\u2581Both": 5479,
  "\u2581bin": 5480,
  "saudara": 5481,
  "\u2581Probably": 5482,
  "\u2581mengemudi": 5483,
  "\u2581bother": 5484,
  "\u2581organisasi": 5485,
  "\u2581threat": 5486,
  "\u2581Adalah": 5487,
  "\u2581mendapati": 5488,
  "\u2581upstairs": 5489,
  "\u2581laid": 5490,
  "\u2581stayed": 5491,
  "\u2581pemuda": 5492,
  "\u2581letting": 5493,
  "\u2581millions": 5494,
  "\u2581positive": 5495,
  "jam": 5496,
  "\u2581berteman": 5497,
  "\u2581served": 5498,
  "\u2581stage": 5499,
  "\u2581bridge": 5500,
  "\u2581detail": 5501,
  "\u2581cup": 5502,
  "\u2581measure": 5503,
  "wah": 5504,
  "\u2581Song": 5505,
  "Who": 5506,
  "\u2581peraturan": 5507,
  "\u2581Bibi": 5508,
  "\u2581Egypt": 5509,
  "\u2581Mel": 5510,
  "\u2581spell": 5511,
  "\u2581grown": 5512,
  "\u2581Duduk": 5513,
  "\u2581jin": 5514,
  "\u2581mengakhiri": 5515,
  "\u2581sekelompok": 5516,
  "\u2581tersenyum": 5517,
  "0": 5518,
  "\u2581telpon": 5519,
  "tis": 5520,
  "\u2581susah": 5521,
  "akhir": 5522,
  "\u2581Jenderal": 5523,
  "\u2581membenarkan": 5524,
  "\u2581stood": 5525,
  "\u2581Bos": 5526,
  "\u2581Jan": 5527,
  "\u2581loose": 5528,
  "\u2581membantunya": 5529,
  "\u2581prefer": 5530,
  "\u2581shown": 5531,
  "\u2581putriku": 5532,
  "\u2581serupa": 5533,
  "\u2581su": 5534,
  "\u2581prayers": 5535,
  "\u2581Also": 5536,
  "\u2581dilihat": 5537,
  "\u2581memories": 5538,
  "\u2581True": 5539,
  "Kita": 5540,
  "aya": 5541,
  "\u2581murah": 5542,
  "\u2581creatures": 5543,
  "\u2581discuss": 5544,
  "\u2581dollar": 5545,
  "\u2581Devil": 5546,
  "\u2581kontak": 5547,
  "\u2581technology": 5548,
  "bur": 5549,
  "over": 5550,
  "\u2581dick": 5551,
  "\u2581kesaksian": 5552,
  "\u2581lawan": 5553,
  "\u2581bo": 5554,
  "\u2581sah": 5555,
  "\u2581Sounds": 5556,
  "\u2581Uang": 5557,
  "\u2581pilot": 5558,
  "\u2581National": 5559,
  "\u2581Wu": 5560,
  "\u2581memainkan": 5561,
  "\u2581penguasa": 5562,
  "itas": 5563,
  "\u2581Empat": 5564,
  "\u2581dibandingkan": 5565,
  "\u2581dumb": 5566,
  "\u2581mak": 5567,
  "\u2581meetings": 5568,
  "\u2581siswa": 5569,
  "\u2581dijanjikan": 5570,
  "\u2581distance": 5571,
  "\u2581easily": 5572,
  "\u2581rata": 5573,
  "\u2581Alan": 5574,
  "\u2581request": 5575,
  "\u2581perut": 5576,
  "jika": 5577,
  "\u2581blessed": 5578,
  "\u2581memerangi": 5579,
  "io": 5580,
  "\u2581Eve": 5581,
  "\u2581hakim": 5582,
  "\u2581generasi": 5583,
  "To": 5584,
  "ser": 5585,
  "\u2581debu": 5586,
  "\u2581kedatangan": 5587,
  "\u2581reality": 5588,
  "\u2581salahku": 5589,
  "\u2581secrets": 5590,
  "\u2581doors": 5591,
  "30": 5592,
  "buat": 5593,
  "her": 5594,
  "\u2581Che": 5595,
  "\u2581events": 5596,
  "\u2581growing": 5597,
  "\u2581kelihatannya": 5598,
  "\u2581Always": 5599,
  "\u2581bread": 5600,
  "\u2581Greek": 5601,
  "\u2581dogs": 5602,
  "\u2581attitude": 5603,
  "\u2581possibly": 5604,
  "\u2581puas": 5605,
  "\u2581berurusan": 5606,
  "\u2581fake": 5607,
  "\u2581mengabaikan": 5608,
  "\u2581katakanlah": 5609,
  "\u2581witch": 5610,
  "cho": 5611,
  "ping": 5612,
  "\u2581mencintainya": 5613,
  "\u2581walls": 5614,
  "\u2581mencobanya": 5615,
  "US": 5616,
  "\u2581Sersan": 5617,
  "\u2581memperlakukan": 5618,
  "\u2581kedalam": 5619,
  "\u2581mengganti": 5620,
  "\u2581peperangan": 5621,
  "\u2581sentuh": 5622,
  "\u2581tiket": 5623,
  "\u2581gather": 5624,
  "\u2581menghadap": 5625,
  "\u2581melacak": 5626,
  "\u2581pastikan": 5627,
  "\u2581sesama": 5628,
  "\u2581Ibr": 5629,
  "\u2581Unless": 5630,
  "\u2581site": 5631,
  "\u2581disembah": 5632,
  "\u2581membawaku": 5633,
  "\u2581Ron": 5634,
  "\u2581career": 5635,
  "\u2581mengenalnya": 5636,
  "ium": 5637,
  "\u2581US": 5638,
  "\u2581menipu": 5639,
  "AL": 5640,
  "\u25812.": 5641,
  "\u2581Ternyata": 5642,
  "\u2581Dapat": 5643,
  "\u2581menyebalkan": 5644,
  "\u2581pop": 5645,
  "\u2581sheep": 5646,
  "\u2581hurts": 5647,
  "\u2581berdarah": 5648,
  "\u2581bound": 5649,
  "\u2581cars": 5650,
  "\u2581Ye": 5651,
  "\u2581vampire": 5652,
  "tri": 5653,
  "\u2581pendidikan": 5654,
  "\u2581tergantung": 5655,
  "ita": 5656,
  "\u2581Hope": 5657,
  "\u2581Wise": 5658,
  "\u2581plant": 5659,
  "LE": 5660,
  "\u2581Far": 5661,
  "\u2581kena": 5662,
  "\u2581penasaran": 5663,
  "\u2581jawabannya": 5664,
  "\u2581menghitung": 5665,
  "\u2581Tunjukkan": 5666,
  "\u2581perangkat": 5667,
  "\u2581membangkitkan": 5668,
  "\u2581trade": 5669,
  "\u2581diatas": 5670,
  "\u2581higher": 5671,
  "pal": 5672,
  "\u2581thereof": 5673,
  "\u2581bloody": 5674,
  "\u2581breaking": 5675,
  "\u2581regret": 5676,
  "\u2581bathroom": 5677,
  "\u2581starts": 5678,
  "\u2581wajahnya": 5679,
  "\u2581cells": 5680,
  "\u2581saving": 5681,
  "\u2581Er": 5682,
  "\u2581Pretty": 5683,
  "\u2581teeth": 5684,
  "\u2581Cobalah": 5685,
  "\u2581usaha": 5686,
  "\u2581dibangun": 5687,
  "\u2581dr": 5688,
  "\u2581Blue": 5689,
  "\u2581male": 5690,
  "\u2581lupakan": 5691,
  "rd": 5692,
  "\u258118.": 5693,
  "\u2581Officer": 5694,
  "\u2581Angkat": 5695,
  "\u2581Relax": 5696,
  "\u2581lines": 5697,
  "\u2581spoken": 5698,
  "\u2581menge": 5699,
  "lee": 5700,
  "\u2581perumpamaan": 5701,
  "\u2581Calm": 5702,
  "\u2581perbuatannya": 5703,
  "\u2581prevent": 5704,
  "\u2581insane": 5705,
  "mem": 5706,
  "\u2581ear": 5707,
  "\u2581mengundang": 5708,
  "\u2581Cal": 5709,
  "\u2581ditutup": 5710,
  "\u2581cares": 5711,
  "\u2581checked": 5712,
  "\u2581menghukum": 5713,
  "\u2581perdamaian": 5714,
  "\u2581soldier": 5715,
  "\u2581duluan": 5716,
  "\u2581learning": 5717,
  "\u2581recently": 5718,
  "\u2581seumur": 5719,
  "\u2581Bell": 5720,
  "\u2581touched": 5721,
  "\u2581positif": 5722,
  "\u2581Gunakan": 5723,
  "\u2581bermimpi": 5724,
  "\u2581priest": 5725,
  "\u2581tangguh": 5726,
  "\u2581DI": 5727,
  "\u2581suggest": 5728,
  "\u2581precious": 5729,
  "\u2581sand": 5730,
  "\u258137": 5731,
  "\u2581Bantu": 5732,
  "\u2581pasir": 5733,
  "\u2581falling": 5734,
  "ney": 5735,
  "port": 5736,
  "\u2581Name": 5737,
  "\u2581biggest": 5738,
  "\u2581forced": 5739,
  "\u2581burden": 5740,
  "\u2581keajaiban": 5741,
  "\u2581perhitungan": 5742,
  "\u2581Night": 5743,
  "\u2581Prince": 5744,
  "\u2581senior": 5745,
  "\u2581Ibrani": 5746,
  "\u2581billion": 5747,
  "\u2581forgotten": 5748,
  "\u2581alasannya": 5749,
  "\u2581Hebat": 5750,
  "\u2581lolos": 5751,
  "\u2581tertangkap": 5752,
  "ingat": 5753,
  "\u2581Add": 5754,
  "16": 5755,
  "Ra": 5756,
  "\u2581dimakan": 5757,
  "\u2581carefully": 5758,
  "\u2581kinds": 5759,
  "\u2581meniru": 5760,
  "\u2581England": 5761,
  "\u2581beristirahat": 5762,
  "\u2581heading": 5763,
  "\u2581Shu": 5764,
  "\u2581Taylor": 5765,
  "\u2581below": 5766,
  "\u2581prepare": 5767,
  "\u2581Edward": 5768,
  "\u2581Charlotte": 5769,
  "\u2581challenge": 5770,
  "malaikat": 5771,
  "\u2581grace": 5772,
  "\u2581Mad": 5773,
  "\u2581goal": 5774,
  "\u2581ratusan": 5775,
  "\u2581menyiapkan": 5776,
  "\u2581pizza": 5777,
  "Wah": 5778,
  "\u2581khususnya": 5779,
  "\u2581produce": 5780,
  "\u2581suicide": 5781,
  "\u2581mis": 5782,
  "\u2581tersangka": 5783,
  "\u2581selesaikan": 5784,
  "\u2581botol": 5785,
  "\u2581bullet": 5786,
  "ig": 5787,
  "\u2581Artinya": 5788,
  "\u2581surface": 5789,
  "\u25819,": 5790,
  "\u2581Carrie": 5791,
  "\u2581bones": 5792,
  "\u2581Chicago": 5793,
  "\u2581Drop": 5794,
  "\u2581Europe": 5795,
  "\u2581berencana": 5796,
  "\u2581cases": 5797,
  "\u2581storm": 5798,
  "\u2581excited": 5799,
  "\u2581mengembangkan": 5800,
  "Demi": 5801,
  "\u2581sweetheart": 5802,
  "\u2581tantangan": 5803,
  "9": 5804,
  "\u2581partners": 5805,
  "\u2581committed": 5806,
  "\u2581Absolutely": 5807,
  "\u2581bi": 5808,
  "\u2581gua": 5809,
  "\u2581lamanya": 5810,
  "\u2581Box": 5811,
  "\u2581headed": 5812,
  "\u2581dropped": 5813,
  "peng": 5814,
  "\u2581murni": 5815,
  "\u2581Andrew": 5816,
  "\u2581Perancis": 5817,
  "lar": 5818,
  "mba": 5819,
  "\u2581Shoot": 5820,
  "\u2581ban": 5821,
  "\u2581memecahkan": 5822,
  "\u2581raksasa": 5823,
  "\u2581Begini": 5824,
  "\u2581Marcus": 5825,
  "\u2581etc": 5826,
  "\u2581ltu": 5827,
  "\u2581Sekitar": 5828,
  "\u2581society": 5829,
  "\u2581keluarkan": 5830,
  "\u2581severe": 5831,
  "\u258113:": 5832,
  "\u2581Dewa": 5833,
  "\u2581bersemangat": 5834,
  "\u2581fan": 5835,
  "\u2581meningkat": 5836,
  "Don": 5837,
  "espite": 5838,
  "\u2581advantage": 5839,
  "\u2581dokumen": 5840,
  "\u2581loud": 5841,
  "\u2581mengusir": 5842,
  "\u2581Kehidupan": 5843,
  "\u2581ledakan": 5844,
  "\u2581balls": 5845,
  "\u2581details": 5846,
  "So": 5847,
  "\u2581species": 5848,
  "\u2581somehow": 5849,
  "\u2581Jeremy": 5850,
  "\u2581apostles": 5851,
  "bra": 5852,
  "\u2581noticed": 5853,
  "\u2581Lieutenant": 5854,
  "\u2581lulus": 5855,
  "\u2581salju": 5856,
  "\u258135": 5857,
  "\u2581stronger": 5858,
  "#": 5859,
  "\u2581jadilah": 5860,
  "\u2581kaca": 5861,
  "angan": 5862,
  "fer": 5863,
  "\u2581Karen": 5864,
  "\u2581Bijaksana": 5865,
  "\u2581Kyle": 5866,
  "\u2581Sign": 5867,
  "\u2581dihukum": 5868,
  "\u2581Tan": 5869,
  "\u2581invite": 5870,
  "\u2581restoran": 5871,
  "tama": 5872,
  "\u2581Again": 5873,
  "\u2581Olivia": 5874,
  "\u2581pleased": 5875,
  "\u2581teladan": 5876,
  "AT": 5877,
  "But": 5878,
  "\u2581bulu": 5879,
  "\u2581Creator": 5880,
  "\u2581Panggil": 5881,
  "\u2581berpakaian": 5882,
  "\u2581nowhere": 5883,
  "\u2581Kent": 5884,
  "\u2581Sebagian": 5885,
  "\u2581menginginkannya": 5886,
  "\u2581Guess": 5887,
  "\u2581ruin": 5888,
  "\u2581kekurangan": 5889,
  "fo": 5890,
  "nna": 5891,
  "\u2581Morgan": 5892,
  "\u2581akses": 5893,
  "\u2581becoming": 5894,
  "\u2581Minggir": 5895,
  "\u2581serving": 5896,
  "\u2581teguh": 5897,
  "\u2581Instead": 5898,
  "\u2581Must": 5899,
  "\u2581milk": 5900,
  "\u2581Leo": 5901,
  "\u2581claim": 5902,
  "\u2581penatua": 5903,
  "\u2581pi": 5904,
  "\u2581daddy": 5905,
  "\u2581melemparkan": 5906,
  "\u2581opening": 5907,
  "\u2581Masalah": 5908,
  "\u2581aja": 5909,
  "len": 5910,
  "\u2581Roy": 5911,
  "yan": 5912,
  "\u2581Nanti": 5913,
  "\u2581Wake": 5914,
  "\u2581Dah": 5915,
  "\u2581task": 5916,
  "\u2581masukkan": 5917,
  "\u2581paying": 5918,
  "\u2581Mei": 5919,
  "nim": 5920,
  "\u2581Light": 5921,
  "\u2581Roh": 5922,
  "\u2581km": 5923,
  "nah": 5924,
  "\u2581cap": 5925,
  "\u2581forest": 5926,
  "\u2581Dar": 5927,
  "\u2581Each": 5928,
  "\u2581melarang": 5929,
  "\u2581Ahh": 5930,
  "\u2581Dulu": 5931,
  "\u2581Timur": 5932,
  "\u2581manager": 5933,
  "\u2581rivers": 5934,
  "\u2581rumahmu": 5935,
  "\u2581mode": 5936,
  "isasi": 5937,
  "\u2581Begitulah": 5938,
  "\u2581Raj": 5939,
  "\u2581placed": 5940,
  "\u2581(%": 5941,
  "\u2581chicken": 5942,
  "ulang": 5943,
  "\u2581Kali": 5944,
  "\u2581kesal": 5945,
  "\u2581kilometer": 5946,
  "\u2581knock": 5947,
  "ical": 5948,
  "\u2581Akulah": 5949,
  "\u2581ce": 5950,
  "\u2581denied": 5951,
  "\u2581manakah": 5952,
  "anmu": 5953,
  "az": 5954,
  "\u2581Wayne": 5955,
  "Orang": 5956,
  "\u2581syarat": 5957,
  "\u2581afford": 5958,
  "\u2581rescue": 5959,
  "\u2581ringan": 5960,
  "\u2581setting": 5961,
  "\u2581threw": 5962,
  "\u2581ordered": 5963,
  "AR": 5964,
  "\u2581Mer": 5965,
  "\u2581associate": 5966,
  "was": 5967,
  "\u2581courage": 5968,
  "\u2581sepenuh": 5969,
  "\u2581unjust": 5970,
  "\u2581folks": 5971,
  "\u2581gratis": 5972,
  "mempertimbangkan": 5973,
  "\u2581Lois": 5974,
  "\u2581Surat": 5975,
  "\u2581kambing": 5976,
  "\u2581memikirkannya": 5977,
  "\u2581circumstances": 5978,
  "\u2581menguji": 5979,
  "ning": 5980,
  "what": 5981,
  "\u2581melewatkan": 5982,
  "\u2581mempersiapkan": 5983,
  "bin": 5984,
  "tiap": 5985,
  "\u2581victory": 5986,
  "\u2581siapakah": 5987,
  "\u2581Barat": 5988,
  "\u2581cook": 5989,
  "\u2581Mason": 5990,
  "\u2581approach": 5991,
  "\u2581behavior": 5992,
  "\u2581believing": 5993,
  "\u2581elder": 5994,
  "\u2581Wall": 5995,
  "\u2581kacang": 5996,
  "\u2581records": 5997,
  "\u2581agreed": 5998,
  "\u2581kecewa": 5999,
  "\u2581tape": 6000,
  "\u2581River": 6001,
  "\u2581Yehuda": 6002,
  "\u2581apartemen": 6003,
  "\u2581inspired": 6004,
  "\u2581rumput": 6005,
  "\u2581steps": 6006,
  "\u2581terpisah": 6007,
  "\u2581German": 6008,
  "\u2581Grand": 6009,
  "\u2581Keterangan": 6010,
  "10": 6011,
  "\u2581berwarna": 6012,
  "\u2581buried": 6013,
  "inya": 6014,
  "\u2581Duduklah": 6015,
  "\u2581carried": 6016,
  "\u2581medicine": 6017,
  "\u2581Demikian": 6018,
  "\u2581nada": 6019,
  "\u2581le": 6020,
  "\u2581fe": 6021,
  "\u2581France": 6022,
  "\u2581pem": 6023,
  "mad": 6024,
  "\u2581Meski": 6025,
  "\u2581pandai": 6026,
  "\u2581Katanya": 6027,
  "\u2581bakal": 6028,
  "\u2581berenang": 6029,
  "\u2581shower": 6030,
  "\u2581staff": 6031,
  "\u2581Mati": 6032,
  "\u2581followers": 6033,
  "\u2581eventually": 6034,
  "\u2581meninggalkannya": 6035,
  "\u2581tulus": 6036,
  "\u2581bangkit": 6037,
  "\u2581respond": 6038,
  "\u2581Nenek": 6039,
  "od": 6040,
  "\u2581Maya": 6041,
  "\u2581lower": 6042,
  "cur": 6043,
  "\u2581verses": 6044,
  "\u2581assume": 6045,
  "\u2581bottle": 6046,
  "\u2581Goodbye": 6047,
  "\u2581Mars": 6048,
  "\u2581dapur": 6049,
  "sebagai": 6050,
  "tah": 6051,
  "\u2581Tangkap": 6052,
  "\u2581ciptaan": 6053,
  "\u2581warned": 6054,
  "iya": 6055,
  "\u2581option": 6056,
  "hil": 6057,
  "\u2581merindukanmu": 6058,
  "\u2581nu": 6059,
  "lic": 6060,
  "\u2581Morning": 6061,
  "chan": 6062,
  "\u2581Lincoln": 6063,
  "\u2581Los": 6064,
  "\u2581Senator": 6065,
  "\u2581attacked": 6066,
  "\u2581memalukan": 6067,
  "\u2581snow": 6068,
  "\u2581excellent": 6069,
  "\u2581terms": 6070,
  "\u2581font": 6071,
  "\u2581Smith": 6072,
  "\u2581Tomorrow": 6073,
  "\u2581Best": 6074,
  "\u2581server": 6075,
  "tter": 6076,
  "\u2581MAN": 6077,
  "\u2581percakapan": 6078,
  "ragu": 6079,
  "\u2581Laut": 6080,
  "\u2581dig": 6081,
  "\u2581leads": 6082,
  "\u2581ridiculous": 6083,
  "\u2581destruction": 6084,
  "\u2581lack": 6085,
  "\u2581pola": 6086,
  "\u2581punish": 6087,
  "\u258134": 6088,
  "\u2581panik": 6089,
  "\u2581balas": 6090,
  "\u2581nakal": 6091,
  "\u2581pengecut": 6092,
  "\u2581remains": 6093,
  "\u2581Cheers": 6094,
  "\u2581theory": 6095,
  "\u2581vital": 6096,
  "kai": 6097,
  "\u2581berputar": 6098,
  "\u2581bond": 6099,
  "\u2581streets": 6100,
  "\u2581Credit": 6101,
  "\u2581Kara": 6102,
  "\u2581dealing": 6103,
  "\u2581malang": 6104,
  "\u2581Menjadi": 6105,
  "\u2581mendesak": 6106,
  "gunung": 6107,
  "\u2581Stark": 6108,
  "\u2581forces": 6109,
  "\u2581memasak": 6110,
  "\u2581menguatkan": 6111,
  "wanita": 6112,
  "\u2581payah": 6113,
  "\u2581Howard": 6114,
  "\u2581Sue": 6115,
  "\u2581hadapi": 6116,
  "\u2581investigation": 6117,
  "\u2581Berkas": 6118,
  "\u2581Betapa": 6119,
  "\u2581kerabat": 6120,
  "\u2581Je": 6121,
  "\u2581Mayor": 6122,
  "\u2581grant": 6123,
  "\u2581Carol": 6124,
  "\u2581pie": 6125,
  "\u2581shape": 6126,
  "stone": 6127,
  "\u25818:": 6128,
  "\u2581memanggilku": 6129,
  "\u2581weekend": 6130,
  "\u2581Judah": 6131,
  "\u2581tombol": 6132,
  "\u2581kirim": 6133,
  "\u2581grave": 6134,
  "\u2581wow": 6135,
  "\u2581telinga": 6136,
  "\u2581Gordon": 6137,
  "\u2581Mobil": 6138,
  "\u2581kitchen": 6139,
  "\u2581OF": 6140,
  "\u2581particular": 6141,
  "\u2581plenty": 6142,
  "\u2581Jamie": 6143,
  "\u2581School": 6144,
  "\u2581wajahmu": 6145,
  "low": 6146,
  "\u2581diutus": 6147,
  "\u2581Pre": 6148,
  "\u2581menyalahkan": 6149,
  "They": 6150,
  "\u2581mengejutkan": 6151,
  "like": 6152,
  "\u2581drama": 6153,
  "\u2581mewah": 6154,
  "\u2581national": 6155,
  "\u2581Hand": 6156,
  "\u2581hu": 6157,
  "\u2581berlatih": 6158,
  "\u2581saudaranya": 6159,
  "tz": 6160,
  "\u2581antar": 6161,
  "\u2581merasakannya": 6162,
  "\u2581ungkapan": 6163,
  "Hi": 6164,
  "\u2581Isa": 6165,
  "\u2581diminta": 6166,
  "Man": 6167,
  "hm": 6168,
  "\u2581progress": 6169,
  "ville": 6170,
  "\u2581keraguan": 6171,
  "\u2581motherfucker": 6172,
  "\u2581Kha": 6173,
  "\u2581kuncinya": 6174,
  "\u2581pegang": 6175,
  "\u2581Tha": 6176,
  "\u2581daughters": 6177,
  "\u2581perhiasan": 6178,
  "ons": 6179,
  "\u2581Jess": 6180,
  "\u2581Bersama": 6181,
  "\u2581burned": 6182,
  "Pe": 6183,
  "\u2581AND": 6184,
  "\u2581Anyone": 6185,
  "\u2581successful": 6186,
  "\u2581tarik": 6187,
  "\u2581puncak": 6188,
  "pu": 6189,
  "\u2581breakfast": 6190,
  "\u2581bertaruh": 6191,
  "\u2581penyebab": 6192,
  "\u2581Serius": 6193,
  "\u2581Whether": 6194,
  "\u2581ketentuan": 6195,
  "\u2581perawatan": 6196,
  "\u2581perform": 6197,
  "\u2581During": 6198,
  "\u2581suck": 6199,
  "ris": 6200,
  "\u2581Derek": 6201,
  "\u2581plus": 6202,
  "\u258148": 6203,
  "\u2581mengha": 6204,
  "\u2581presiden": 6205,
  "\u2581sembuh": 6206,
  "\u2581pabrik": 6207,
  "Bagaimana": 6208,
  "\u2581bite": 6209,
  "\u2581dies": 6210,
  "\u2581gudang": 6211,
  "\u2581issues": 6212,
  "\u2581Gary": 6213,
  "\u2581Perkasa": 6214,
  "\u2581Pernah": 6215,
  "\u2581Rome": 6216,
  "\u2581arrested": 6217,
  "\u2581giant": 6218,
  "\u2581ocean": 6219,
  "\u2581rejected": 6220,
  "\u2581tertidur": 6221,
  "\u2581bye": 6222,
  "\u2581regarding": 6223,
  "\u2581Sini": 6224,
  "\u2581betina": 6225,
  "\u2581gugup": 6226,
  "\u2581bait": 6227,
  "\u2581brave": 6228,
  "\u2581criminal": 6229,
  "\u2581asalnya": 6230,
  "\u2581ganda": 6231,
  "\u25813.": 6232,
  "\u2581End": 6233,
  "\u2581lots": 6234,
  "\u2581Gabriel": 6235,
  "\u2581berburu": 6236,
  "\u2581Yesaya": 6237,
  "\u2581reject": 6238,
  "nam": 6239,
  "oleh": 6240,
  "\u2581Kubilang": 6241,
  "\u2581SMA": 6242,
  "\u2581hanging": 6243,
  "\u2581kenangan": 6244,
  "\u2581menemuimu": 6245,
  "\u2581victims": 6246,
  "dor": 6247,
  "\u2581Latin": 6248,
  "\u2581Maksudnya": 6249,
  "Our": 6250,
  "\u2581Berkat": 6251,
  "\u2581Waktunya": 6252,
  "lau": 6253,
  "\u2581direct": 6254,
  "cing": 6255,
  "\u2581Tarik": 6256,
  "ven": 6257,
  "\u2581Though": 6258,
  "\u2581Yeon": 6259,
  "\u2581Anne": 6260,
  "\u2581berantakan": 6261,
  "\u2581dilarang": 6262,
  "nama": 6263,
  "\u2581Dragon": 6264,
  "\u2581baiknya": 6265,
  "\u2581east": 6266,
  "\u2581specific": 6267,
  "\u2581cobaan": 6268,
  "Ta": 6269,
  "\u2581Things": 6270,
  "back": 6271,
  "\u2581Russian": 6272,
  "\u2581elders": 6273,
  "\u2581spesies": 6274,
  "\u2581laws": 6275,
  "\u2581memasang": 6276,
  "\u2581serigala": 6277,
  "\u2581kapten": 6278,
  "\u2581ME": 6279,
  "\u2581Robin": 6280,
  "\u2581perilaku": 6281,
  "\u2581Prancis": 6282,
  "\u2581menghadiri": 6283,
  "When": 6284,
  "\u2581Kid": 6285,
  "\u2581menyangka": 6286,
  "\u2581temannya": 6287,
  "\u2581Texas": 6288,
  "35": 6289,
  "\u2581Lain": 6290,
  "\u2581dada": 6291,
  "\u2581goodness": 6292,
  "\u25817,": 6293,
  "\u2581bertengkar": 6294,
  "\u2581blessing": 6295,
  "\u2581pencarian": 6296,
  "\u2581semi": 6297,
  "\u2581Lewat": 6298,
  "\u2581University": 6299,
  "\u2581Sekolah": 6300,
  "\u2581guna": 6301,
  "\u2581sekedar": 6302,
  "\u2581statement": 6303,
  "hai": 6304,
  "\u2581moyang": 6305,
  "\u2581guest": 6306,
  "\u2581Isaiah": 6307,
  "\u2581dijelaskan": 6308,
  "\u2581heed": 6309,
  "\u2581raya": 6310,
  "jah": 6311,
  "\u2581papan": 6312,
  "\u2581Step": 6313,
  "\u2581dilahirkan": 6314,
  "\u2581Josh": 6315,
  "\u2581mendirikan": 6316,
  "\u2581mengacaukan": 6317,
  "\u2581pants": 6318,
  "\u2581merencanakan": 6319,
  "\u2581@": 6320,
  "\u2581confidence": 6321,
  "De": 6322,
  "\u2581tembok": 6323,
  "\u2581pemberian": 6324,
  "\u2581rate": 6325,
  "\u2581sexual": 6326,
  "\u2581wide": 6327,
  "\u2581karakter": 6328,
  "\u2581bergantung": 6329,
  "\u2581campur": 6330,
  "\u2581mood": 6331,
  "\u2581bosan": 6332,
  "\u2581host": 6333,
  "\u2581terbatas": 6334,
  "zz": 6335,
  "\u2581Jawab": 6336,
  "\u2581kebakaran": 6337,
  "\u2581exchange": 6338,
  "\u2581meal": 6339,
  "\u258136": 6340,
  "\u2581crowd": 6341,
  "\u2581maintain": 6342,
  "\u2581membacanya": 6343,
  "\u2581recite": 6344,
  "+": 6345,
  "\u2581disc": 6346,
  "\u2581letters": 6347,
  "\u2581outta": 6348,
  "\u2581tetangga": 6349,
  "\u2581Jelas": 6350,
  "\u2581freak": 6351,
  "\u2581menyukaimu": 6352,
  "ries": 6353,
  "\u2581Alpha": 6354,
  "\u2581awful": 6355,
  "\u2581Minggu": 6356,
  "ration": 6357,
  "\u2581ko": 6358,
  "tengah": 6359,
  "\u2581Copy": 6360,
  "\u2581potongan": 6361,
  "\u2581appears": 6362,
  "\u2581earned": 6363,
  "ketika": 6364,
  "\u2581kemuliaan": 6365,
  "\u2581pool": 6366,
  "\u2581throat": 6367,
  "\u2581Meksiko": 6368,
  "\u2581pertarungan": 6369,
  "bintang": 6370,
  "\u2581beruang": 6371,
  "\u2581Real": 6372,
  "\u2581September": 6373,
  "\u2581berduka": 6374,
  "\u2581semoga": 6375,
  "\u258110.": 6376,
  "\u2581Chan": 6377,
  "\u2581Kotak": 6378,
  "\u2581Marty": 6379,
  "murah": 6380,
  "\u2581berkaitan": 6381,
  "\u2581Dead": 6382,
  "\u2581Mata": 6383,
  "\u2581Singh": 6384,
  "\u2581dimasukkan": 6385,
  "\u2581woods": 6386,
  "aria": 6387,
  "rang": 6388,
  "\u2581Italia": 6389,
  "\u2581kemajuan": 6390,
  "perbuatan": 6391,
  "\u2581hat": 6392,
  "\u2581Nomor": 6393,
  "\u2581gathered": 6394,
  "\u2581patience": 6395,
  "\u2581pukulan": 6396,
  "\u2581tulisan": 6397,
  "\u2581Elizabeth": 6398,
  "\u2581Hannah": 6399,
  "\u2581farm": 6400,
  "\u2581Dong": 6401,
  "\u2581federal": 6402,
  "isme": 6403,
  "\u2581Pekerjaan": 6404,
  "rus": 6405,
  "\u2581Colonel": 6406,
  "\u2581nubuat": 6407,
  "lamanya": 6408,
  "ugh": 6409,
  "\u2581Ver": 6410,
  "\u2581Mor": 6411,
  "\u2581Timothy": 6412,
  "\u2581li": 6413,
  "\u2581hawa": 6414,
  "\u2581response": 6415,
  "\u2581tip": 6416,
  "\u2581Kebanyakan": 6417,
  "bit": 6418,
  "\u2581entered": 6419,
  "\u2581kimia": 6420,
  "\u2581Major": 6421,
  "\u2581actions": 6422,
  "\u2581client": 6423,
  "\u2581Katie": 6424,
  "\u2581Periksa": 6425,
  "\u2581weather": 6426,
  "gang": 6427,
  "\u2581membiarkannya": 6428,
  "\u2581Gen": 6429,
  "\u2581Pop": 6430,
  "\u2581Send": 6431,
  "\u2581understood": 6432,
  "\u2581witnesses": 6433,
  "\u2581cancer": 6434,
  "\u2581complicated": 6435,
  "\u2581jembatan": 6436,
  "\u2581flowers": 6437,
  "\u2581aksi": 6438,
  "\u2581memanfaatkan": 6439,
  "dur": 6440,
  "There": 6441,
  "pang": 6442,
  "\u2581Same": 6443,
  "\u2581Zi": 6444,
  "\u2581pretend": 6445,
  "\u2581British": 6446,
  "\u2581menduga": 6447,
  "\u2581menekan": 6448,
  "\u2581Kolonel": 6449,
  "\u2581Romawi": 6450,
  "\u2581terkandung": 6451,
  "\u2581mengenali": 6452,
  "\u2581situs": 6453,
  "\u2581berbalik": 6454,
  "\u2581messengers": 6455,
  "\u2581range": 6456,
  "\u2581revenge": 6457,
  "ls": 6458,
  "shi": 6459,
  "\u2581setempat": 6460,
  "\u2581Caroline": 6461,
  "\u2581dipenuhi": 6462,
  "\u2581political": 6463,
  "\u2581sarapan": 6464,
  "kira": 6465,
  "\u2581Lou": 6466,
  "\u2581Sehingga": 6467,
  "\u2581terdiri": 6468,
  "\u2581bright": 6469,
  "\u2581mail": 6470,
  "cat": 6471,
  "know": 6472,
  "\u2581banyaknya": 6473,
  "\u2581mendarat": 6474,
  "\u2581percobaan": 6475,
  "\u2581pin": 6476,
  "baru": 6477,
  "sus": 6478,
  "\u2581Grayson": 6479,
  "\u2581memaafkan": 6480,
  "\u2581menyembuhkan": 6481,
  "\u2581messenger": 6482,
  "Come": 6483,
  "ay": 6484,
  "mudahan": 6485,
  "\u2581berbaring": 6486,
  "\u2581debt": 6487,
  "\u2581harapkan": 6488,
  "\u2581reveal": 6489,
  "\u2581Rebecca": 6490,
  "\u2581department": 6491,
  "\u2581kala": 6492,
  "\u2581menunjuk": 6493,
  "\u2581Quick": 6494,
  "\u2581fixed": 6495,
  "20": 6496,
  "aa": 6497,
  "pos": 6498,
  "zo": 6499,
  "\u2581Baca": 6500,
  "\u2581Demikianlah": 6501,
  "\u2581cabang": 6502,
  "\u2581object": 6503,
  "-1": 6504,
  "\u2581Val": 6505,
  "\u2581capable": 6506,
  "\u2581menganiaya": 6507,
  "\u2581tank": 6508,
  "\u2581cek": 6509,
  "\u2581produk": 6510,
  "Ba": 6511,
  "\u2581membahayakan": 6512,
  "\u2581sebesar": 6513,
  "\u2581Hit": 6514,
  "\u2581education": 6515,
  "\u2581separate": 6516,
  "\u2581terbiasa": 6517,
  "\u2581comfortable": 6518,
  "\u2581internet": 6519,
  "\u2581shake": 6520,
  "\u2581Stan": 6521,
  "\u2581gen": 6522,
  "\u2581hina": 6523,
  "\u2581perasaanmu": 6524,
  "\u2581Art": 6525,
  "\u2581forbidden": 6526,
  "\u2581imp": 6527,
  "kemudian": 6528,
  "\u2581Ham": 6529,
  "\u258119.": 6530,
  "\u2581astaga": 6531,
  "\u2581NO": 6532,
  "\u2581kubur": 6533,
  "\u2581Kelly": 6534,
  "\u2581Pictures": 6535,
  "\u2581Under": 6536,
  "\u2581menjanjikan": 6537,
  "\u2581personally": 6538,
  "Tuhan": 6539,
  "\u2581trap": 6540,
  "\u2581SAW": 6541,
  "\u2581promises": 6542,
  "\u2581Jeff": 6543,
  "\u2581Sayangnya": 6544,
  "\u2581decisions": 6545,
  "\u2581penye": 6546,
  "\u2581recompense": 6547,
  "\u2581tiny": 6548,
  "\u2581Mendengar": 6549,
  "\u2581napas": 6550,
  "\u2581sekaligus": 6551,
  "\u2581character": 6552,
  "\u2581Tadi": 6553,
  "\u2581determined": 6554,
  "\u2581oath": 6555,
  "\u2581label": 6556,
  "\u2581satupun": 6557,
  "\u2581pos": 6558,
  "nk": 6559,
  "\u2581Lisbon": 6560,
  "-2": 6561,
  "\u2581DVD": 6562,
  "\u2581Japan": 6563,
  "\u2581ditinggalkan": 6564,
  "lock": 6565,
  "uri": 6566,
  "\u2581Kakek": 6567,
  "\u2581treatment": 6568,
  "\u2581Kai": 6569,
  "\u2581Bahasa": 6570,
  "\u2581pujian": 6571,
  "\u2581seeking": 6572,
  "Kemudian": 6573,
  "\u2581dibayar": 6574,
  "\u2581Kasih": 6575,
  "\u2581kolam": 6576,
  "\u2581opinion": 6577,
  "\u2581shirt": 6578,
  "\u2581soft": 6579,
  "\u2581stolen": 6580,
  "\u2581vi": 6581,
  "\u2581Pangeran": 6582,
  "\u2581kepalaku": 6583,
  "\u2581magazine": 6584,
  "\u2581nggak": 6585,
  "\u2581penghargaan": 6586,
  "\u2581various": 6587,
  "king": 6588,
  "\u2581harder": 6589,
  "bul": 6590,
  "hukum": 6591,
  "\u2581Elijah": 6592,
  "\u2581Gold": 6593,
  "\u2581kesepian": 6594,
  "\u2581profesional": 6595,
  "\u2581throughout": 6596,
  "\u2581ataupun": 6597,
  "\u2581Eat": 6598,
  "\u2581Walaupun": 6599,
  "\u2581cenderung": 6600,
  "\u2581telanjang": 6601,
  "\u2581membesarkan": 6602,
  "\u2581sha": 6603,
  "\u2581transfer": 6604,
  "\u2581Letakkan": 6605,
  "\u2581lukisan": 6606,
  "\u2581obvious": 6607,
  "\u2581z": 6608,
  "right": 6609,
  "\u2581ekonomi": 6610,
  "\u2581perlahan": 6611,
  "\u2581Terserah": 6612,
  "\u2581demon": 6613,
  "\u2581ikatan": 6614,
  "\u2581Es": 6615,
  "\u2581santai": 6616,
  "mas": 6617,
  "\u2581Dick": 6618,
  "\u2581Semakin": 6619,
  "\u2581tanyakan": 6620,
  "ag": 6621,
  "\u2581Sungai": 6622,
  "ikir": 6623,
  "\u2581membutuhkannya": 6624,
  "\u2581menggali": 6625,
  "\u2581skills": 6626,
  "\u2581Tahu": 6627,
  "\u2581stress": 6628,
  "van": 6629,
  "\u2581pantat": 6630,
  "\u2581po": 6631,
  "\u2581Punya": 6632,
  "\u2581boneka": 6633,
  "\u2581Kepada": 6634,
  "\u2581topi": 6635,
  "lebih": 6636,
  "\u2581mencakup": 6637,
  "\u2581pride": 6638,
  "\u2581disappeared": 6639,
  "\u2581pengawas": 6640,
  "\u2581versi": 6641,
  "\u2581Hm": 6642,
  "\u2581ekor": 6643,
  "\u2581terbuat": 6644,
  "\u2581Hill": 6645,
  "\u2581lemari": 6646,
  "\u2581membosankan": 6647,
  "\u2581menghibur": 6648,
  "\u2581string": 6649,
  "\u2581groups": 6650,
  "\u2581teroris": 6651,
  "ally": 6652,
  "\u2581Tinggi": 6653,
  "Per": 6654,
  "dal": 6655,
  "\u2581kanker": 6656,
  "diam": 6657,
  "\u2581Casey": 6658,
  "\u2581Land": 6659,
  "\u2581Jordan": 6660,
  "\u2581Nor": 6661,
  "\u2581moves": 6662,
  "15": 6663,
  "ef": 6664,
  "\u2581Malcolm": 6665,
  "\u2581activity": 6666,
  "\u2581hunt": 6667,
  "\u2581lipat": 6668,
  "\u2581akrab": 6669,
  "\u2581directly": 6670,
  "\u2581hundreds": 6671,
  "\u2581version": 6672,
  "\u266a": 6673,
  "\u2581Bicara": 6674,
  "\u2581Bravo": 6675,
  "\u2581desert": 6676,
  "\u2581edge": 6677,
  "\u2581pot": 6678,
  "\u2581Pasukan": 6679,
  "\u2581barely": 6680,
  "\u2581Sulit": 6681,
  "\u2581awalnya": 6682,
  "\u2581Padahal": 6683,
  "\u2581carrying": 6684,
  "\u2581perbatasan": 6685,
  "\u2581saluran": 6686,
  "\u2581Sedangkan": 6687,
  "\u2581Vincent": 6688,
  "\u2581saudaramu": 6689,
  "\u2581Lot": 6690,
  "\u2581Kejadian": 6691,
  "\u2581earn": 6692,
  "\u2581sepeda": 6693,
  "qi": 6694,
  "\u2581memesan": 6695,
  "\u2581spesial": 6696,
  "saat": 6697,
  "\u2581jarang": 6698,
  "\u2581kagak": 6699,
  "gh": 6700,
  "\u2581Rob": 6701,
  "\u2581kemarahan": 6702,
  "\u2581komunikasi": 6703,
  "\u2581changing": 6704,
  "\u2581established": 6705,
  "\u2581hall": 6706,
  "\u2581ought": 6707,
  "\u2581ratu": 6708,
  "\u2581ruined": 6709,
  "soever": 6710,
  "\u2581Princess": 6711,
  "\u2581fallen": 6712,
  "\u2581messages": 6713,
  "nan": 6714,
  "\u2581Water": 6715,
  "\u2581alkohol": 6716,
  "\u2581dwell": 6717,
  "\u2581granted": 6718,
  "\u2581kakinya": 6719,
  "\u2581kubantu": 6720,
  "\u2581Cass": 6721,
  "\u2581whenever": 6722,
  "\u2581blok": 6723,
  "\u2581cards": 6724,
  "\u2581causes": 6725,
  "\u2581sekadar": 6726,
  "\u2581Stone": 6727,
  "\u2581mela": 6728,
  "\u2581season": 6729,
  "\u2581Finally": 6730,
  "\u2581berkelahi": 6731,
  "\u2581menyewa": 6732,
  "\u2581bersenjata": 6733,
  "\u2581dibaptis": 6734,
  "\u2581runs": 6735,
  "\u2581settle": 6736,
  "\u2581Brown": 6737,
  "\u2581Head": 6738,
  "\u2581Telah": 6739,
  "\u2581pages": 6740,
  "\u2581pengakuan": 6741,
  "sedang": 6742,
  "\u2581Par": 6743,
  "\u2581liburan": 6744,
  "down": 6745,
  "lie": 6746,
  "\u2581Keluarkan": 6747,
  "\u2581Gra": 6748,
  "\u2581bermakna": 6749,
  "gg": 6750,
  "\u2581klien": 6751,
  "\u2581noise": 6752,
  "bagian": 6753,
  "\u2581makin": 6754,
  "\u2581mataku": 6755,
  "\u2581Sergeant": 6756,
  "\u2581basah": 6757,
  "\u2581sup": 6758,
  "\u2581sur": 6759,
  "\u2581Bayangkan": 6760,
  "\u2581Lagipula": 6761,
  "\u2581Nope": 6762,
  "\u2581beres": 6763,
  "\u2581link": 6764,
  "\u2581studying": 6765,
  ">": 6766,
  "\u2581handsome": 6767,
  "\u2581peran": 6768,
  "\u2581transgress": 6769,
  "buahan": 6770,
  "\u2581lest": 6771,
  "\u2581required": 6772,
  "tin": 6773,
  "\u2581layar": 6774,
  "\u2581risalah": 6775,
  "\u2581Later": 6776,
  "\u2581cake": 6777,
  "\u2581pelatihan": 6778,
  "\u2581Sister": 6779,
  "\u2581membiarkanmu": 6780,
  "\u2581Mort": 6781,
  "\u2581Salam": 6782,
  "\u2581flu": 6783,
  "\u2581pan": 6784,
  "\u2581Pick": 6785,
  "\u2581Tinggal": 6786,
  "\u2581Negara": 6787,
  "\u2581pelakunya": 6788,
  "\u2581Amsal": 6789,
  "\u2581exact": 6790,
  "\u2581n": 6791,
  "\u2581provision": 6792,
  "\u2581tunggal": 6793,
  "\u2581Kelihatannya": 6794,
  "\u2581Proverbs": 6795,
  "\u2581acts": 6796,
  "\u2581yatim": 6797,
  "rt": 6798,
  "\u2581Kematian": 6799,
  "\u2581Zo": 6800,
  "\u2581menyelidiki": 6801,
  "jang": 6802,
  "\u2581mencintaiku": 6803,
  "\u2581pandang": 6804,
  "\u2581Nn": 6805,
  "\u258112,": 6806,
  "\u2581finger": 6807,
  "\u2581instance": 6808,
  "\u2581keadaannya": 6809,
  "\u2581menyebar": 6810,
  "\u2581pelanggaran": 6811,
  "lihat": 6812,
  "\u2581flat": 6813,
  "\u2581rapat": 6814,
  "ath": 6815,
  "net": 6816,
  "ura": 6817,
  "\u2581divorce": 6818,
  "\u2581terpaksa": 6819,
  "hy": 6820,
  "\u2581sebahagia": 6821,
  "\u2581Being": 6822,
  "\u2581Profesor": 6823,
  "\u2581environment": 6824,
  "\u2581develop": 6825,
  "\u2581gelombang": 6826,
  "\u2581kedamaian": 6827,
  "\u2581publik": 6828,
  "\u2581throne": 6829,
  "\u2581Taurat": 6830,
  "\u2581haram": 6831,
  "\u2581Nikita": 6832,
  "\u2581biji": 6833,
  "\u2581cemas": 6834,
  "\u2581horrible": 6835,
  "\u2581manner": 6836,
  "\u2581paman": 6837,
  "\u2581sayap": 6838,
  "\u2581tears": 6839,
  "nce": 6840,
  "\u25819:": 6841,
  "\u2581menjadikannya": 6842,
  "\u2581Va": 6843,
  "\u2581nuts": 6844,
  "org": 6845,
  "\u2581Play": 6846,
  "\u2581suamiku": 6847,
  "\u2581Boston": 6848,
  "\u2581attend": 6849,
  "\u2581melempar": 6850,
  "\u2581nona": 6851,
  "\u2581secepatnya": 6852,
  "\u2581dibuang": 6853,
  "\u2581organization": 6854,
  "amkan": 6855,
  "zu": 6856,
  "\u2581cream": 6857,
  "\u2581Abu": 6858,
  "\u2581Kaum": 6859,
  "\u2581bersinar": 6860,
  "\u2581Central": 6861,
  "\u2581branch": 6862,
  "\u2581kebencian": 6863,
  "\u2581perfectly": 6864,
  "\u2581pikiranmu": 6865,
  "\u2581olahraga": 6866,
  "\u2581pelan": 6867,
  "\u2581solve": 6868,
  "\u2581dipanggil": 6869,
  "\u2581Keren": 6870,
  "\u2581trigger": 6871,
  "\u2581Doug": 6872,
  "\u2581clock": 6873,
  "\u2581football": 6874,
  "\u2581pajak": 6875,
  "\u2581Jonathan": 6876,
  "\u2581route": 6877,
  "\u2581trusted": 6878,
  "\u2581Rather": 6879,
  "\u2581risiko": 6880,
  "\u2581Jean": 6881,
  "\u2581berhutang": 6882,
  "\u2581kematiannya": 6883,
  "\u2581joined": 6884,
  "\u2581lonely": 6885,
  "cy": 6886,
  "\u2581Pem": 6887,
  "\u2581gaib": 6888,
  "\u2581Madam": 6889,
  "\u2581Start": 6890,
  "\u2581Susan": 6891,
  "\u2581although": 6892,
  "\u2581iron": 6893,
  "\u2581dancing": 6894,
  "\u2581express": 6895,
  "\u2581Tri": 6896,
  "\u2581recent": 6897,
  "\u2581peri": 6898,
  "\u2581mengungkapkan": 6899,
  "\u2581menikahi": 6900,
  "\u2581sugar": 6901,
  "\u2581kelemahan": 6902,
  "\u2581whosoever": 6903,
  "ati": 6904,
  "ez": 6905,
  "\u2581beast": 6906,
  "\u2581berutang": 6907,
  "\u2581dikeluarkan": 6908,
  "\u2581kakek": 6909,
  "\u2581paket": 6910,
  "\u258115:": 6911,
  "\u2581leher": 6912,
  "\u2581kakimu": 6913,
  "\u2581seksual": 6914,
  "form": 6915,
  "\u2581official": 6916,
  "win": 6917,
  "\u2581Island": 6918,
  "\u2581convinced": 6919,
  "\u2581kehancuran": 6920,
  "\u2581Hakim": 6921,
  "\u2581secepat": 6922,
  "\u2581ships": 6923,
  "\u2581jalannya": 6924,
  "side": 6925,
  "\u2581Bang": 6926,
  "\u2581Tower": 6927,
  "\u2581cita": 6928,
  "\u2581genius": 6929,
  "\u2581bayangan": 6930,
  "\u2581diserang": 6931,
  "\u2581network": 6932,
  "\u2581Pu": 6933,
  "\u2581Sta": 6934,
  "\u2581takdir": 6935,
  "\u2581antaranya": 6936,
  "\u2581interview": 6937,
  "eh": 6938,
  "\u2581Cepatlah": 6939,
  "\u2581chest": 6940,
  "run": 6941,
  "seperti": 6942,
  "sky": 6943,
  "\u2581terkesan": 6944,
  "\u2581pair": 6945,
  "\u2581seandainya": 6946,
  "\u2581designed": 6947,
  "\u2581kerugian": 6948,
  "\u2581ketat": 6949,
  "\u2581persahabatan": 6950,
  "\u2581principles": 6951,
  "\u2581reported": 6952,
  "\u2581beach": 6953,
  "\u2581horses": 6954,
  "\u2581incredible": 6955,
  "iden": 6956,
  "\u2581Bal": 6957,
  "\u2581Kunci": 6958,
  "\u2581berulang": 6959,
  "ford": 6960,
  "\u2581berlayar": 6961,
  "\u2581bertugas": 6962,
  "\u2581membawakan": 6963,
  "\u2581Linda": 6964,
  "illa": 6965,
  "\u2581mencarimu": 6966,
  "\u2581refuge": 6967,
  "\u2581Gun": 6968,
  "\u2581jet": 6969,
  "\u2581port": 6970,
  "\u2581Nazi": 6971,
  "\u2581Nu": 6972,
  "hanya": 6973,
  "hir": 6974,
  "lly": 6975,
  "tch": 6976,
  "\u2581argument": 6977,
  "\u2581babe": 6978,
  "\u2581explained": 6979,
  "kun": 6980,
  "\u2581Nam": 6981,
  "\u2581introduce": 6982,
  "\u2581memindahkan": 6983,
  "\u2581menatap": 6984,
  "\u2581Mulder": 6985,
  "\u2581ditahan": 6986,
  "\u2581sangka": 6987,
  "\u2581Jahanam": 6988,
  "\u2581Menara": 6989,
  "\u2581Sakit": 6990,
  "\u2581bocah": 6991,
  "\u2581upah": 6992,
  "\u2581Spirit": 6993,
  "\u2581cousin": 6994,
  "\u2581creature": 6995,
  "\u2581dilakukannya": 6996,
  "\u2581Knowing": 6997,
  "\u2581Seung": 6998,
  "\u2581planned": 6999,
  "\u2581Sunday": 7000,
  "\u2581Walker": 7001,
  "\u2581recorded": 7002,
  "\u2581sukai": 7003,
  "TER": 7004,
  "\u2581Terkadang": 7005,
  "\u2581contract": 7006,
  "\u2581cried": 7007,
  "\u2581potential": 7008,
  "\u2581expression": 7009,
  "\u2581possess": 7010,
  "\u2581remote": 7011,
  "\u2581sacred": 7012,
  "\u2581dressed": 7013,
  "\u2581gagasan": 7014,
  "\u2581naga": 7015,
  "jauh": 7016,
  "\u2581jaminan": 7017,
  "\u2581efforts": 7018,
  "\u2581simpan": 7019,
  "\u2581basis": 7020,
  "\u2581memuat": 7021,
  "\u2581mendengarku": 7022,
  "\u258111,": 7023,
  "\u2581kuning": 7024,
  "\u2581awake": 7025,
  "\u2581kamp": 7026,
  "\u2581watched": 7027,
  "\u2581wherever": 7028,
  "\u2581gambaran": 7029,
  "\u2581gaun": 7030,
  "lum": 7031,
  "top": 7032,
  "\u2581Salomo": 7033,
  "\u2581Times": 7034,
  "\u2581kontrak": 7035,
  "\u2581trained": 7036,
  "\u2581ate": 7037,
  "\u2581jantan": 7038,
  "\u2581penutup": 7039,
  "\u2581krim": 7040,
  "lay": 7041,
  "\u2581released": 7042,
  "\u2581diper": 7043,
  "\u2581tentangmu": 7044,
  "pelan": 7045,
  "\u2581beneath": 7046,
  "\u2581fuel": 7047,
  "ick": 7048,
  "\u2581keburukan": 7049,
  "\u2581treasure": 7050,
  "ft": 7051,
  "light": 7052,
  "\u2581related": 7053,
  "\u2581sempat": 7054,
  "\u2581wash": 7055,
  "\u2581hikmah": 7056,
  "\u2581crash": 7057,
  "\u2581terbit": 7058,
  "\u2581zombie": 7059,
  "house": 7060,
  "\u2581Heh": 7061,
  "\u2581Perfect": 7062,
  "\u2581bakat": 7063,
  "\u2581reaksi": 7064,
  "\u2581sembunyikan": 7065,
  "\u2581Behold": 7066,
  "val": 7067,
  "\u2581bersatu": 7068,
  "\u2581exercise": 7069,
  "\u2581menyambut": 7070,
  "\u2581Pastikan": 7071,
  "\u2581quality": 7072,
  "\u2581pelaku": 7073,
  "\u2581tetaplah": 7074,
  "\u2581west": 7075,
  "\u2581Dark": 7076,
  "\u2581adikmu": 7077,
  "kami": 7078,
  "rugi": 7079,
  "\u2581confirm": 7080,
  "\u2581individuals": 7081,
  "\u2581younger": 7082,
  "\u2581Hee": 7083,
  "hatilah": 7084,
  "\u2581Club": 7085,
  "\u2581individual": 7086,
  "\u2581professional": 7087,
  "\u2581Ayub": 7088,
  "\u2581Neither": 7089,
  "\u2581shalt": 7090,
  "\u2581spare": 7091,
  "\u2581Mak": 7092,
  "\u2581healthy": 7093,
  "\u2581metal": 7094,
  "\u2581ugly": 7095,
  "\u2581negatif": 7096,
  "\u2581selling": 7097,
  "\u2581tidings": 7098,
  "\u2581menurutku": 7099,
  "\u2581terpenting": 7100,
  "\u2581Pablo": 7101,
  "\u2581Tangan": 7102,
  "\u2581connected": 7103,
  "bun": 7104,
  "\u2581kantong": 7105,
  "\u2581desk": 7106,
  "\u2581kriminal": 7107,
  "\u2581suruh": 7108,
  "\u2581Israelites": 7109,
  "\u2581design": 7110,
  "\u2581explains": 7111,
  "\u2581hardly": 7112,
  "\u2581mengikutinya": 7113,
  "\u2581pengantin": 7114,
  "\u2581Berlin": 7115,
  "\u2581Japanese": 7116,
  "\u2581failure": 7117,
  "\u2581mainan": 7118,
  "\u2581pekerjaanmu": 7119,
  "\u2581perhimpunan": 7120,
  "\u2581terkadang": 7121,
  "\u2581kesedihan": 7122,
  "\u2581row": 7123,
  "\u2581tajam": 7124,
  "\u2581Boo": 7125,
  "\u2581Friday": 7126,
  "\u2581Tetaplah": 7127,
  "Kamu": 7128,
  "\u2581semata": 7129,
  "\u2581Anjing": 7130,
  "\u2581log": 7131,
  "\u2581mempercayainya": 7132,
  "\u2581tour": 7133,
  "\u2581Abby": 7134,
  "\u2581minds": 7135,
  "\u2581seed": 7136,
  "\u2581sudden": 7137,
  "musuh": 7138,
  "segera": 7139,
  "\u2581Dae": 7140,
  "\u2581Jessica": 7141,
  "\u2581Second": 7142,
  "\u2581salam": 7143,
  "\u2581ucapkan": 7144,
  "\u2581unik": 7145,
  "ure": 7146,
  "\u2581Division": 7147,
  "\u2581Number": 7148,
  "\u2581Moon": 7149,
  "\u2581Seven": 7150,
  "\u2581apply": 7151,
  "\u2581dipecat": 7152,
  "\u2581permulaan": 7153,
  "\u2581pocket": 7154,
  "\u2581tangkap": 7155,
  "\u2581dispute": 7156,
  "\u2581kukira": 7157,
  "\u2581leading": 7158,
  "\u2581restaurant": 7159,
  "\u258121.": 7160,
  "\u2581Kuasa": 7161,
  "\u2581buatan": 7162,
  "\u2581manage": 7163,
  "\u2581fungsi": 7164,
  "\u2581plain": 7165,
  "\u2581tepatnya": 7166,
  "\u2581useful": 7167,
  "\u2581wood": 7168,
  "ball": 7169,
  "\u25815.": 7170,
  "\u2581berniat": 7171,
  "\u2581negative": 7172,
  "\u2581taksi": 7173,
  "\u2581ticket": 7174,
  "\u2581heavenly": 7175,
  "who": 7176,
  "\u2581Ana": 7177,
  "\u2581menjauhi": 7178,
  "\u2581pingsan": 7179,
  "\u2581seru": 7180,
  "\u2581simbol": 7181,
  "\u2581Ce": 7182,
  "\u2581DO": 7183,
  "\u2581Dev": 7184,
  "\u2581Julia": 7185,
  "\u2581medan": 7186,
  "\u2581permohonan": 7187,
  "\u2581Joo": 7188,
  "\u2581expecting": 7189,
  "\u2581mar": 7190,
  "siap": 7191,
  "\u2581Kurt": 7192,
  "\u2581resurrection": 7193,
  "\u2581sukacita": 7194,
  "\u2581terbukti": 7195,
  "\u2581border": 7196,
  "your": 7197,
  "\u2581Kor": 7198,
  "\u2581affair": 7199,
  "\u2581roda": 7200,
  "\u2581teks": 7201,
  "\u2581wound": 7202,
  "Tapi": 7203,
  "sungai": 7204,
  "\u2581Conrad": 7205,
  "\u2581Segala": 7206,
  "\u2581dibuka": 7207,
  "\u2581existence": 7208,
  "\u2581guards": 7209,
  "\u2581popular": 7210,
  "\u2581ramah": 7211,
  "\u2581Hitler": 7212,
  "\u2581Murphy": 7213,
  "\u2581lembah": 7214,
  "\u2581singing": 7215,
  "tentang": 7216,
  "\u2581SE": 7217,
  "\u2581fingers": 7218,
  "\u2581Ceritakan": 7219,
  "\u2581Footnote": 7220,
  "\u2581Selanjutnya": 7221,
  "\u2581anointed": 7222,
  "\u2581pemburu": 7223,
  "\u2581Said": 7224,
  "\u2581jobs": 7225,
  "\u2581Adakah": 7226,
  "\u2581LA": 7227,
  "\u2581slowly": 7228,
  "\u2581Cole": 7229,
  "\u2581Hanna": 7230,
  "\u2581ro": 7231,
  "\u2581Clarke": 7232,
  "\u2581removed": 7233,
  "\u2581File": 7234,
  "\u2581spring": 7235,
  "\u2581kenyataannya": 7236,
  "\u2581laughing": 7237,
  "ON": 7238,
  "\u2581Cap": 7239,
  "\u2581repeat": 7240,
  "\u2581Alison": 7241,
  "\u2581Miller": 7242,
  "\u2581celebrate": 7243,
  "\u25812000": 7244,
  "kota": 7245,
  "\u2581Forgive": 7246,
  "\u2581membacakan": 7247,
  ",000": 7248,
  "21": 7249,
  "ect": 7250,
  "\u2581bill": 7251,
  "\u2581lni": 7252,
  "\u2581struck": 7253,
  "\u2581Mahakuasa": 7254,
  "\u2581influence": 7255,
  "\u258116,": 7256,
  "\u2581Sammy": 7257,
  "\u2581photos": 7258,
  "\u2581terburu": 7259,
  "\u2581Harusnya": 7260,
  "\u2581ladang": 7261,
  "\u2581terhubung": 7262,
  "\u25812,": 7263,
  "\u2581Malaikat": 7264,
  "\u2581SM": 7265,
  "\u2581basic": 7266,
  "\u2581degrees": 7267,
  "\u2581developed": 7268,
  "\u2581curious": 7269,
  "\u2581treated": 7270,
  "\u2581vote": 7271,
  "\u2581centuries": 7272,
  "\u2581terletak": 7273,
  "\u2581zero": 7274,
  "\u2581\u00a9": 7275,
  "\u2581Terakhir": 7276,
  "EN": 7277,
  "rk": 7278,
  "\u2581Hubungi": 7279,
  "\u2581Suara": 7280,
  "ui": 7281,
  "\u2581terkunci": 7282,
  "ward": 7283,
  "\u2581argumen": 7284,
  "\u2581suffered": 7285,
  "\u2581Hyun": 7286,
  "\u2581Mum": 7287,
  "\u2581cuaca": 7288,
  "\u2581winter": 7289,
  "\u2581mengamati": 7290,
  "\u2581Eli": 7291,
  "\u2581leaders": 7292,
  "\u2581melindungimu": 7293,
  "\u2581mendatangi": 7294,
  "ou": 7295,
  "\u2581tebusan": 7296,
  "\u2581cacat": 7297,
  "\u2581friendship": 7298,
  "\u2581sides": 7299,
  "\u2581Pilih": 7300,
  "\u2581Guy": 7301,
  "\u2581Turunkan": 7302,
  "\u2581coat": 7303,
  "\u2581crack": 7304,
  "\u2581merayakan": 7305,
  "\u2581Khan": 7306,
  "\u2581hikmat": 7307,
  "tumbuh": 7308,
  "\u2581bang": 7309,
  "\u2581baptized": 7310,
  "\u2581mesti": 7311,
  "\u2581Petugas": 7312,
  "\u2581confused": 7313,
  "\u2581kesabaran": 7314,
  "\u2581memintaku": 7315,
  "are": 7316,
  "\u2581Romans": 7317,
  "\u2581email": 7318,
  "\u2581spy": 7319,
  "\u2581papers": 7320,
  "\u2581Frankie": 7321,
  "\u2581backup": 7322,
  "aka": 7323,
  "\u2581400": 7324,
  "\u2581Kat": 7325,
  "\u2581mengatasinya": 7326,
  "\u2581sweetie": 7327,
  "\u2581guardian": 7328,
  "\u2581added": 7329,
  "\u2581neighborhood": 7330,
  "\u2581unique": 7331,
  "\u2581rindu": 7332,
  "\u2581violent": 7333,
  "ika": 7334,
  "\u2581kutukan": 7335,
  "\u2581prom": 7336,
  "punya": 7337,
  "\u2581pemeriksaan": 7338,
  "\u2581shadow": 7339,
  "board": 7340,
  "\u2581Yaitu": 7341,
  "\u2581faktor": 7342,
  "\u2581Kabar": 7343,
  "\u2581highly": 7344,
  "\u2581mistakes": 7345,
  "\u2581nasional": 7346,
  "get": 7347,
  "istri": 7348,
  "\u2581Mudah": 7349,
  "\u2581bernapas": 7350,
  "\u2581pasang": 7351,
  "\u2581tepi": 7352,
  "ities": 7353,
  "rak": 7354,
  "\u2581Left": 7355,
  "\u2581Nay": 7356,
  "\u2581chair": 7357,
  "\u2581senapan": 7358,
  "kon": 7359,
  "ben": 7360,
  "\u2581Atas": 7361,
  "\u2581Larry": 7362,
  "\u2581fu": 7363,
  "\u2581slept": 7364,
  "\u258114,": 7365,
  "\u2581Sweet": 7366,
  "\u2581berlindung": 7367,
  "\u2581kampung": 7368,
  "\u2581lips": 7369,
  "\u2581Tonight": 7370,
  "\u2581everlasting": 7371,
  "\u2581penis": 7372,
  "\u2581divine": 7373,
  "\u2581Free": 7374,
  "\u2581areas": 7375,
  "\u2581load": 7376,
  "\u2581ritual": 7377,
  "\u2581wishes": 7378,
  "\u2581intend": 7379,
  "\u2581niat": 7380,
  "\u2581otherwise": 7381,
  "\u258138": 7382,
  "\u2581Top": 7383,
  "\u2581memutar": 7384,
  "\u2581population": 7385,
  "\u2581Harold": 7386,
  "\u2581emotional": 7387,
  "\u2581jealous": 7388,
  "\u2581kuburan": 7389,
  "\u2581Komandan": 7390,
  "\u2581Target": 7391,
  "\u2581membutuhkanmu": 7392,
  "\u2581cattle": 7393,
  "\u2581panah": 7394,
  "\u2581Enam": 7395,
  "\u2581doctors": 7396,
  "kawan": 7397,
  "\u2581Aman": 7398,
  "\u2581Greg": 7399,
  "\u2581Yoon": 7400,
  "\u2581traffic": 7401,
  "\u2581lands": 7402,
  "\u2581suasana": 7403,
  "ken": 7404,
  "\u2581Bolehkah": 7405,
  "\u2581materi": 7406,
  "\u2581options": 7407,
  "pin": 7408,
  "\u2581airport": 7409,
  "\u2581cewek": 7410,
  "\u2581sedikitpun": 7411,
  "\u2581Flash": 7412,
  "\u2581button": 7413,
  "\u2581keji": 7414,
  "\u2581je": 7415,
  "\u2581Grant": 7416,
  "\u2581continued": 7417,
  "log": 7418,
  "\u2581Butuh": 7419,
  "\u2581pembohong": 7420,
  "\u2581penumpang": 7421,
  "rai": 7422,
  "\u2581mengarah": 7423,
  "\u2581melangkah": 7424,
  "\u2581memisahkan": 7425,
  "\u2581mengkhawatirkan": 7426,
  "ius": 7427,
  "\u258114:": 7428,
  "\u2581Mona": 7429,
  "\u2581Gil": 7430,
  "\u2581Spencer": 7431,
  "\u2581pengganti": 7432,
  "\u2581refuse": 7433,
  "\u2581Hotel": 7434,
  "\u2581Joshua": 7435,
  "\u2581fortune": 7436,
  "\u2581player": 7437,
  "\u2581solution": 7438,
  "\u2581trapped": 7439,
  "\u2581hook": 7440,
  "\u2581sheriff": 7441,
  "zar": 7442,
  "\u2581conditions": 7443,
  "\u2581scary": 7444,
  "\u2581tawaran": 7445,
  "ative": 7446,
  "\u2581terikat": 7447,
  "\u2581tie": 7448,
  "\u2581Scripture": 7449,
  "\u2581memperbaikinya": 7450,
  "\u2581slaves": 7451,
  "macam": 7452,
  "\u2581Api": 7453,
  "\u2581Joey": 7454,
  "\u2581efek": 7455,
  "\u2581goodbye": 7456,
  "\u2581Senjata": 7457,
  "\u2581daily": 7458,
  "\u2581menyarankan": 7459,
  "\u2581asap": 7460,
  "\u2581pelanggan": 7461,
  "\u2581published": 7462,
  "\u2581owner": 7463,
  "\u2581proved": 7464,
  "\u2581disappear": 7465,
  "\u2581\u25cf": 7466,
  "\u2581expensive": 7467,
  "\u2581sends": 7468,
  "ably": 7469,
  "\u2581Yakub": 7470,
  "\u2581memintamu": 7471,
  "\u2581menyakitimu": 7472,
  "\u2581pekerjaanku": 7473,
  "Applause": 7474,
  "pon": 7475,
  "\u2581thief": 7476,
  "ks": 7477,
  "\u2581Menteri": 7478,
  "\u2581bercerita": 7479,
  "\u2581lanjutkan": 7480,
  "\u2581Stephen": 7481,
  "\u2581lately": 7482,
  "\u2581minister": 7483,
  "rani": 7484,
  "rumah": 7485,
  "\u2581Pernahkah": 7486,
  "\u2581deaf": 7487,
  "\u2581jadwal": 7488,
  "\u258142": 7489,
  "\u2581Brooklyn": 7490,
  "\u2581Cooper": 7491,
  "\u2581Gunung": 7492,
  "\u2581beloved": 7493,
  "\u2581defend": 7494,
  "\u2581laku": 7495,
  "las": 7496,
  "\u2581Feel": 7497,
  "\u2581miracle": 7498,
  "\u2581cintai": 7499,
  "\u2581jual": 7500,
  "\u2581basically": 7501,
  "\u2581kekasih": 7502,
  "Where": 7503,
  "\u2581Dear": 7504,
  "\u2581Korintus": 7505,
  "\u2581switch": 7506,
  "buang": 7507,
  "\u2581Agung": 7508,
  "\u2581Bodoh": 7509,
  "\u2581Direktur": 7510,
  "\u2581Todd": 7511,
  "\u2581Answer": 7512,
  "\u2581racun": 7513,
  "\u2581diperkirakan": 7514,
  "\u2581funeral": 7515,
  "\u2581memberkati": 7516,
  "\u2581truthful": 7517,
  "\u2581panggung": 7518,
  "Le": 7519,
  "\u2581shock": 7520,
  "\u2581terdekat": 7521,
  "tle": 7522,
  "\u2581Francis": 7523,
  "\u2581lengan": 7524,
  "\u2581literally": 7525,
  "\u2581melebihi": 7526,
  "\u2581series": 7527,
  "Your": 7528,
  "iran": 7529,
  "\u2581generations": 7530,
  "\u2581kuberitahu": 7531,
  "\u2581sexy": 7532,
  "\u2581Bat": 7533,
  "\u2581princess": 7534,
  "\u2581rat": 7535,
  "\u2581section": 7536,
  "\u2581trik": 7537,
  "ible": 7538,
  "led": 7539,
  "\u2581palace": 7540,
  "\u2581refused": 7541,
  "\u2581screen": 7542,
  "Ka": 7543,
  "dang": 7544,
  "\u2581abandoned": 7545,
  "des": 7546,
  "\u2581abu": 7547,
  "\u2581justru": 7548,
  "\u2581scare": 7549,
  "\u2581penyelidikan": 7550,
  "\u2581pounds": 7551,
  "\u2581Sin": 7552,
  "\u2581generation": 7553,
  "\u2581valuable": 7554,
  "\u2581Mount": 7555,
  "\u2581prince": 7556,
  "bangkit": 7557,
  "\u2581berpisah": 7558,
  "\u2581meninggalkanmu": 7559,
  "\u2581tri": 7560,
  "\u2581bounty": 7561,
  "\u2581caramu": 7562,
  "\u2581Other": 7563,
  "\u2581menendang": 7564,
  "\u2581merindukan": 7565,
  "\u2581meski": 7566,
  "\u2581gemuk": 7567,
  "\u2581merenungkan": 7568,
  "\u2581sen": 7569,
  "bang": 7570,
  "\u2581Pegang": 7571,
  "\u2581deeply": 7572,
  "\u2581properly": 7573,
  "this": 7574,
  "ware": 7575,
  "ither": 7576,
  "more": 7577,
  "\u2581Takkan": 7578,
  "\u2581menetap": 7579,
  "\u2581uses": 7580,
  "nda": 7581,
  "\u2581unknown": 7582,
  "\u2581identitas": 7583,
  "\u2581kurban": 7584,
  "\u2581sebulan": 7585,
  "dh": 7586,
  "\u2581fulfilled": 7587,
  "\u2581sembunyi": 7588,
  "\u2581signed": 7589,
  "\u2581Sempurna": 7590,
  "\u2581Kar": 7591,
  "\u2581Perintah": 7592,
  "\u2581datanglah": 7593,
  "\u2581melibatkan": 7594,
  "\u2581terserah": 7595,
  "\u2581Break": 7596,
  "\u2581Dana": 7597,
  "\u2581Gentlemen": 7598,
  "\u2581audio": 7599,
  "\u2581gula": 7600,
  "\u2581director": 7601,
  "\u2581extremely": 7602,
  "\u2581organ": 7603,
  "lyn": 7604,
  "\u2581Director": 7605,
  "\u2581Jib": 7606,
  "\u2581escaped": 7607,
  "\u2581melatih": 7608,
  "\u2581Almost": 7609,
  "\u2581destiny": 7610,
  "\u2581diselamatkan": 7611,
  "\u2581endure": 7612,
  "\u2581keberadaan": 7613,
  "\u2581bio": 7614,
  "\u2581eggs": 7615,
  "\u2581mengejek": 7616,
  "\u2581folder": 7617,
  "\u2581nuklir": 7618,
  "just": 7619,
  "\u2581Brad": 7620,
  "\u2581mass": 7621,
  "\u2581pemakaman": 7622,
  "\u2581shift": 7623,
  "nde": 7624,
  "\u2581defeat": 7625,
  "\u2581passing": 7626,
  "\u2581Disana": 7627,
  "\u2581Gereja": 7628,
  "\u2581menggantikan": 7629,
  "\u2581supply": 7630,
  "\u2581terbaru": 7631,
  "ria": 7632,
  "\u2581Ad": 7633,
  "\u2581dawn": 7634,
  "\u2581tunai": 7635,
  "\u2581menara": 7636,
  "\u2581hunting": 7637,
  "\u2581dirumah": 7638,
  "\u2581aid": 7639,
  "\u2581consequences": 7640,
  "\u2581include": 7641,
  "ition": 7642,
  "\u2581silly": 7643,
  "El": 7644,
  "\u2581Ide": 7645,
  "\u2581hired": 7646,
  "ayah": 7647,
  "\u2581Coming": 7648,
  "\u2581Work": 7649,
  "\u2581era": 7650,
  "\u2581protecting": 7651,
  "\u2581sebagainya": 7652,
  "\u2581ajaib": 7653,
  "\u2581breathing": 7654,
  "\u2581IS": 7655,
  "\u2581memanggilnya": 7656,
  "\u2581pit": 7657,
  "\u2581tear": 7658,
  "pengikut": 7659,
  "\u2581Hear": 7660,
  "\u2581Sub": 7661,
  "\u2581sampaikan": 7662,
  "\u258117:": 7663,
  "\u2581Ain": 7664,
  "\u2581kredit": 7665,
  "\u2581menyimpannya": 7666,
  "\u2581movies": 7667,
  "\u2581papa": 7668,
  "\u2581rough": 7669,
  "\u2581Timotius": 7670,
  "\u2581katamu": 7671,
  "\u2581dating": 7672,
  "\u2581kebinasaan": 7673,
  "\u2581Julian": 7674,
  "\u2581ditembak": 7675,
  "\u2581kudengar": 7676,
  "\u2581menandatangani": 7677,
  "\u2581timbul": 7678,
  "yi": 7679,
  "\u2581inform": 7680,
  "\u2581Biasanya": 7681,
  "\u2581foreign": 7682,
  "\u2581madu": 7683,
  "\u2581Commander": 7684,
  "\u2581chip": 7685,
  "\u2581istilah": 7686,
  "\u2581koran": 7687,
  "\u2581membicarakannya": 7688,
  "\u2581stomach": 7689,
  "oo": 7690,
  "\u2581memakannya": 7691,
  "\u2581menyayangimu": 7692,
  "tau": 7693,
  "\u2581kawin": 7694,
  "\u2581lebar": 7695,
  "\u2581parent": 7696,
  "\u2581November": 7697,
  "\u2581neighbor": 7698,
  "\u2581Batman": 7699,
  "\u2581agents": 7700,
  "\u2581Bagaimanapun": 7701,
  "\u2581Seo": 7702,
  "\u2581behalf": 7703,
  "\u2581memperkenalkan": 7704,
  "\u2581menyuruhku": 7705,
  "\u2581th": 7706,
  "aught": 7707,
  "\u2581Injil": 7708,
  "\u2581disediakan": 7709,
  "\u2581experienced": 7710,
  "\u2581keempat": 7711,
  "\u2581mengenalmu": 7712,
  "\u2581paint": 7713,
  "\u2581pertahanan": 7714,
  "ikan": 7715,
  "\u2581Miles": 7716,
  "\u2581wings": 7717,
  "izing": 7718,
  "\u2581Church": 7719,
  "\u2581Witness": 7720,
  "\u2581pig": 7721,
  "\u2581yellow": 7722,
  "\u2581Helen": 7723,
  "\u2581pengikutnya": 7724,
  "\u2581pecundang": 7725,
  "\u2581dimiliki": 7726,
  "\u2581guests": 7727,
  "\u2581assured": 7728,
  "\u2581pra": 7729,
  "\u2581rokok": 7730,
  "\u2581Kekuatan": 7731,
  "\u2581Security": 7732,
  "\u2581pemikiran": 7733,
  "\u2581saham": 7734,
  "\u2581terowongan": 7735,
  "\u2581conscience": 7736,
  "\u2581humble": 7737,
  "\u2581unable": 7738,
  "AM": 7739,
  "\u2581Previously": 7740,
  "\u2581tail": 7741,
  "\u2581Chen": 7742,
  "\u2581June": 7743,
  "\u2581ON": 7744,
  "\u2581library": 7745,
  "\u2581menjauhkan": 7746,
  "\u2581Pengawal": 7747,
  "\u2581Tanda": 7748,
  "\u2581square": 7749,
  "\u2581usual": 7750,
  "\u2581waters": 7751,
  "Siapa": 7752,
  "\u2581benefits": 7753,
  "\u2581enjoyed": 7754,
  "\u2581singa": 7755,
  "\u2581systems": 7756,
  "\u2581tertembak": 7757,
  "\u2581disk": 7758,
  "\u2581illegal": 7759,
  "\u2581menemuinya": 7760,
  "\u2581sooner": 7761,
  "ski": 7762,
  "\u2581Grim": 7763,
  "\u2581Jun": 7764,
  "\u2581bleeding": 7765,
  "\u2581halus": 7766,
  "\u2581sp": 7767,
  "\u2581Walt": 7768,
  "19": 7769,
  "\u2581Germany": 7770,
  "\u2581Vegas": 7771,
  "\u2581juara": 7772,
  "\u2581Mitch": 7773,
  "\u2581balance": 7774,
  "she": 7775,
  "\u2581museum": 7776,
  "\u2581perayaan": 7777,
  "\u2581Dennis": 7778,
  "\u2581Fight": 7779,
  "\u2581Jon": 7780,
  "\u2581Lydia": 7781,
  "\u2581appropriate": 7782,
  "\u2581industri": 7783,
  "\u2581ransom": 7784,
  "\u2581Anakku": 7785,
  "\u2581Julie": 7786,
  "\u2581bucks": 7787,
  "ddy": 7788,
  "qua": 7789,
  "\u2581Quinn": 7790,
  "\u2581Duke": 7791,
  "\u2581appointment": 7792,
  "\u2581Ann": 7793,
  "SE": 7794,
  "\u2581kepunyaan": 7795,
  "\u2581reflect": 7796,
  "vis": 7797,
  "\u2581Kudengar": 7798,
  "\u2581Melakukan": 7799,
  "\u2581pendeta": 7800,
  "\u2581tuanya": 7801,
  "\u2581Bur": 7802,
  "\u2581pensiun": 7803,
  "\u2581seratus": 7804,
  "Ti": 7805,
  "boy": 7806,
  "lip": 7807,
  "\u2581keseluruhan": 7808,
  "\u2581Stu": 7809,
  "\u2581beside": 7810,
  "\u2581sipil": 7811,
  "\u2581parkir": 7812,
  "read": 7813,
  "\u2581Var": 7814,
  "\u2581ciuman": 7815,
  "\u2581mengunci": 7816,
  "\u2581poison": 7817,
  "\u2581Sh": 7818,
  "\u2581tower": 7819,
  "\u2581Angeles": 7820,
  "\u2581daun": 7821,
  "\u2581rare": 7822,
  "ston": 7823,
  "\u2581Caesar": 7824,
  "ida": 7825,
  "\u2581Nancy": 7826,
  "\u2581Apparently": 7827,
  "\u2581Hay": 7828,
  "\u2581activities": 7829,
  "\u2581selected": 7830,
  "\u2581solid": 7831,
  "Men": 7832,
  "\u2581Laura": 7833,
  "\u2581kebaktian": 7834,
  "\u2581tiang": 7835,
  "Bu": 7836,
  "\u2581Michelle": 7837,
  "\u2581disitu": 7838,
  "\u2581oksigen": 7839,
  "\u2581stones": 7840,
  "jar": 7841,
  "\u2581Telepon": 7842,
  "\u2581lake": 7843,
  "\u2581tertinggi": 7844,
  "\u2581Jewish": 7845,
  "\u2581exists": 7846,
  "\u2581wawancara": 7847,
  "zer": 7848,
  "\u2581mengorbankan": 7849,
  "\u2581merawat": 7850,
  "\u2581prayed": 7851,
  "\u2581grandfather": 7852,
  "\u2581harganya": 7853,
  "MA": 7854,
  "\u2581150": 7855,
  "\u2581Gar": 7856,
  "\u2581celaka": 7857,
  "\u2581incident": 7858,
  "\u2581kakakku": 7859,
  "\u2581memakainya": 7860,
  "\u2581poin": 7861,
  "\u2581stabil": 7862,
  "\u2581establish": 7863,
  "\u2581exciting": 7864,
  "\u2581gempa": 7865,
  "LA": 7866,
  "cHFFFF": 7867,
  "\u2581Need": 7868,
  "\u2581begins": 7869,
  "\u2581belaka": 7870,
  "\u2581Holmes": 7871,
  "\u2581Tre": 7872,
  "\u2581addition": 7873,
  "\u2581bone": 7874,
  "\u2581meliputi": 7875,
  "\u2581meragukan": 7876,
  "\u2581assignment": 7877,
  "\u2581lalim": 7878,
  "\u2581piano": 7879,
  "CH": 7880,
  "ions": 7881,
  "zat": 7882,
  "\u2581$1": 7883,
  "\u2581ideal": 7884,
  "\u2581lezat": 7885,
  "\u00e1": 7886,
  "\u2581identity": 7887,
  "\u2581sisanya": 7888,
  "\u2581bless": 7889,
  "\u2581danau": 7890,
  "\u2581mengkhianati": 7891,
  "\u2581pas": 7892,
  "\u2581pengasih": 7893,
  "\u2581Peace": 7894,
  "\u2581bandara": 7895,
  "\u2581Jang": 7896,
  "\u2581recall": 7897,
  "\u2581Count": 7898,
  "\u2581waspada": 7899,
  "ngan": 7900,
  "\u2581Team": 7901,
  "\u2581succeed": 7902,
  "\u2581Careful": 7903,
  "\u2581bergaul": 7904,
  "\u2581permen": 7905,
  "\u2581requires": 7906,
  "\u2581tubuhmu": 7907,
  "\u2581tuntutan": 7908,
  "rick": 7909,
  "\u2581Alexander": 7910,
  "\u2581rent": 7911,
  "\u2581Darah": 7912,
  "\u2581ciptakan": 7913,
  "\u2581gelas": 7914,
  "\u2581tahap": 7915,
  "\u2581Girl": 7916,
  "\u2581Marshall": 7917,
  "\u2581BE": 7918,
  "\u2581belief": 7919,
  "\u2581penggemar": 7920,
  "Ja": 7921,
  "\u2581Brody": 7922,
  "\u2581display": 7923,
  "\u2581ease": 7924,
  "\u2581memuaskan": 7925,
  "lit": 7926,
  "\u2581accounts": 7927,
  "\u2581petani": 7928,
  "\u2581priests": 7929,
  "\u2581Darimana": 7930,
  "\u2581described": 7931,
  "\u2581useless": 7932,
  "ue": 7933,
  "\u2581kelahiran": 7934,
  "\u2581nyonya": 7935,
  "\u2581pena": 7936,
  "\u2581Nate": 7937,
  "\u2581abide": 7938,
  "\u2581bacaan": 7939,
  "\u2581ditambah": 7940,
  "\u2581pastilah": 7941,
  "\u2581pendusta": 7942,
  "\u2581durhaka": 7943,
  "\u2581latar": 7944,
  "\u2581perintahkan": 7945,
  "\u2581Buddha": 7946,
  "\u2581menjijikkan": 7947,
  "\u2581pengajaran": 7948,
  "\u2581survived": 7949,
  "\u2581traveling": 7950,
  "\u2581tuamu": 7951,
  "\u2581Angel": 7952,
  "\u2581drinks": 7953,
  "\u2581remained": 7954,
  "Pro": 7955,
  "ww": 7956,
  "\u2581bayaran": 7957,
  "\u2581menunggumu": 7958,
  "\u2581percayalah": 7959,
  "\u2581terbenam": 7960,
  "\u2581visual": 7961,
  "SA": 7962,
  "\u2581Family": 7963,
  "\u2581Lake": 7964,
  "\u2581bepergian": 7965,
  "\u2581resiko": 7966,
  "\u2581senjatamu": 7967,
  "\u2581international": 7968,
  "\u2581Allen": 7969,
  "gra": 7970,
  "\u2581menggoda": 7971,
  "\u2581utang": 7972,
  "list": 7973,
  "\u2581Maksud": 7974,
  "\u2581WE": 7975,
  "\u2581screwed": 7976,
  "\u2581searching": 7977,
  "40": 7978,
  "\u2581Revelation": 7979,
  "\u2581grade": 7980,
  "\u2581notes": 7981,
  "\u2581pembantu": 7982,
  "ros": 7983,
  "\u2581Ze": 7984,
  "\u2581AT": 7985,
  "\u2581Ser": 7986,
  "\u2581qualities": 7987,
  "ima": 7988,
  "\u2581Ketua": 7989,
  "\u2581Kon": 7990,
  "\u2581Might": 7991,
  "\u2581kutahu": 7992,
  "\u2581Grab": 7993,
  "\u2581ski": 7994,
  "KAN": 7995,
  "med": 7996,
  "nes": 7997,
  "\u2581Sherlock": 7998,
  "\u2581kings": 7999,
  "\u2581mencatat": 8000,
  "\u2581waited": 8001,
  "ette": 8002,
  "hak": 8003,
  "\u2581Plus": 8004,
  "\u2581function": 8005,
  "\u2581Johnson": 8006,
  "\u2581THAT": 8007,
  "\u2581benteng": 8008,
  "ep": 8009,
  "\u2581membelinya": 8010,
  "sti": 8011,
  "\u2581FOR": 8012,
  "\u2581Facebook": 8013,
  "\u2581Lucas": 8014,
  "\u2581Soviet": 8015,
  "\u2581managed": 8016,
  "\u2581menyebarkan": 8017,
  "\u2581Isi": 8018,
  "\u2581Minister": 8019,
  "\u2581kebenarannya": 8020,
  "\u2581wrath": 8021,
  "Ter": 8022,
  "aksi": 8023,
  "\u2581Kapal": 8024,
  "\u2581Seandainya": 8025,
  "\u2581Ward": 8026,
  "\u2581lessons": 8027,
  "\u2581menganjurkan": 8028,
  "\u2581Ab": 8029,
  "\u2581continues": 8030,
  "\u2581hmm": 8031,
  "cut": 8032,
  "\u2581Harvey": 8033,
  "\u2581knees": 8034,
  "tun": 8035,
  "\u2581alcohol": 8036,
  "\u2581pegunungan": 8037,
  "\u2581zone": 8038,
  "\u2581Berita": 8039,
  "\u2581Pakistan": 8040,
  "\u2581menemukanmu": 8041,
  "\u2581writer": 8042,
  "pur": 8043,
  "\u2581Especially": 8044,
  "\u2581Paham": 8045,
  "\u2581mengeluh": 8046,
  "\u2581package": 8047,
  "\u2581tuaku": 8048,
  "\u258124:": 8049,
  "\u2581Power": 8050,
  "\u2581pil": 8051,
  "\u2581rush": 8052,
  "\u2581youth": 8053,
  "umpama": 8054,
  "\u2581Jatuhkan": 8055,
  "\u2581menghubungimu": 8056,
  "\u2581slip": 8057,
  "\u258123.": 8058,
  "\u2581Junior": 8059,
  "\u2581Siapapun": 8060,
  "\u2581diperbolehkan": 8061,
  "\u2581melepas": 8062,
  "post": 8063,
  "\u2581assure": 8064,
  "bus": 8065,
  "\u2581Tuanku": 8066,
  "\u2581rumor": 8067,
  "\u2581Evan": 8068,
  "\u2581Through": 8069,
  "\u2581clouds": 8070,
  "\u2581menanggung": 8071,
  "\u2581screw": 8072,
  "\u2581sharp": 8073,
  "TH": 8074,
  "serah": 8075,
  "\u2581Watchtower": 8076,
  "\u2581cloud": 8077,
  "\u2581trans": 8078,
  "\u2581berkomunikasi": 8079,
  "\u2581explanation": 8080,
  "\u2581menggerakkan": 8081,
  "\u2581salahmu": 8082,
  "\u2581menahannya": 8083,
  "yeong": 8084,
  "\u2581Global": 8085,
  "\u2581Kembalilah": 8086,
  "\u2581Simpan": 8087,
  "\u2581kupikirkan": 8088,
  "\u2581tolol": 8089,
  "\u2581worthy": 8090,
  "\u2581Ay": 8091,
  "\u2581Lance": 8092,
  "\u2581Lanjutkan": 8093,
  "\u2581Mohon": 8094,
  "\u2581Tina": 8095,
  "\u2581affect": 8096,
  "\u2581household": 8097,
  "ANG": 8098,
  "\u2581Sophie": 8099,
  "\u2581competition": 8100,
  "\u2581kinda": 8101,
  "\u2581sungguhan": 8102,
  "\u2581Mencari": 8103,
  "\u2581membatalkan": 8104,
  "\u2581urusanmu": 8105,
  "\u2581Fitz": 8106,
  "\u2581Quiet": 8107,
  "\u2581diikuti": 8108,
  "\u2581warrant": 8109,
  "\u2581Albert": 8110,
  "\u2581downstairs": 8111,
  "hen": 8112,
  "ology": 8113,
  "\u2581Berdiri": 8114,
  "\u2581Melalui": 8115,
  "\u2581bahtera": 8116,
  "\u2581layanan": 8117,
  "\u2581mematahkan": 8118,
  "\u2581mengabar": 8119,
  "\u2581pattern": 8120,
  "RO": 8121,
  "fat": 8122,
  "\u258115.": 8123,
  "\u2581falls": 8124,
  "\u2581Rencana": 8125,
  "\u2581Shaw": 8126,
  "\u2581impressed": 8127,
  "\u2581ketidak": 8128,
  "\u2581memberitakan": 8129,
  "\u2581observe": 8130,
  "\u2581pemahaman": 8131,
  "\u2581potong": 8132,
  "\u2581efektif": 8133,
  "\u2581nafas": 8134,
  "\u2581penggunaan": 8135,
  "\u2581shelter": 8136,
  "\u2581Wilson": 8137,
  "\u2581dibinasakan": 8138,
  "\u2581jenius": 8139,
  "\u2581seburuk": 8140,
  "bulan": 8141,
  "\u2581Certainly": 8142,
  "\u2581regard": 8143,
  "\u2581stres": 8144,
  "\u258113,": 8145,
  "\u2581dump": 8146,
  "\u2581patuh": 8147,
  "\u2581pu": 8148,
  "\u2581pura": 8149,
  "ero": 8150,
  "tetapi": 8151,
  "\u2581Lukas": 8152,
  "\u2581intelligence": 8153,
  "\u2581rencananya": 8154,
  "\u2581root": 8155,
  "\u2581geng": 8156,
  "Jadi": 8157,
  "\u2581Otherwise": 8158,
  "\u2581basement": 8159,
  "\u2581komentar": 8160,
  "\u2581merampok": 8161,
  "\u2581pengguna": 8162,
  "atkan": 8163,
  "kas": 8164,
  "\u2581Siapakah": 8165,
  "\u2581active": 8166,
  "\u2581menjamin": 8167,
  "\u2581peluang": 8168,
  "\u2581tradisi": 8169,
  "sir": 8170,
  "use": 8171,
  "\u2581Jennifer": 8172,
  "\u2581strive": 8173,
  "\u2581Wolf": 8174,
  "\u2581sasaran": 8175,
  "\u2581scientists": 8176,
  "EL": 8177,
  "\u2581Hour": 8178,
  "\u2581Masalahnya": 8179,
  "\u2581logam": 8180,
  "\u2581nafkah": 8181,
  "\u2581Choi": 8182,
  "\u2581Cu": 8183,
  "\u2581Mengenai": 8184,
  "\u2581brilliant": 8185,
  "\u2581defense": 8186,
  "\u2581drove": 8187,
  "serta": 8188,
  "\u2581Diamlah": 8189,
  "\u2581brand": 8190,
  "\u2581pipa": 8191,
  "\u2581whatsoever": 8192,
  "\u2581dwelling": 8193,
  "\u2581menyertai": 8194,
  "\u2581punk": 8195,
  "Kalau": 8196,
  "\u2581CO": 8197,
  "\u2581exit": 8198,
  "\u2581mampir": 8199,
  "\u2581menembus": 8200,
  "\u2581Ren": 8201,
  "\u2581dihancurkan": 8202,
  "\u2581swim": 8203,
  "cher": 8204,
  "\u2581altar": 8205,
  "\u2581apparently": 8206,
  "\u2581pecah": 8207,
  "\u2581pengobatan": 8208,
  "ky": 8209,
  "pem": 8210,
  "\u2581Margaret": 8211,
  "\u2581schedule": 8212,
  "IT": 8213,
  "waktu": 8214,
  "\u2581begitulah": 8215,
  "genap": 8216,
  "name": 8217,
  "sik": 8218,
  "\u2581Google": 8219,
  "\u2581Memangnya": 8220,
  "\u2581losers": 8221,
  "\u2581occasion": 8222,
  "\u2581workers": 8223,
  "\u2581Haven": 8224,
  "\u2581Luthor": 8225,
  "\u2581effects": 8226,
  "\u2581ingatan": 8227,
  "\u2581News": 8228,
  "\u2581armed": 8229,
  "\u2581mantra": 8230,
  "\u2581seal": 8231,
  "\u2581vacation": 8232,
  "\u2581examples": 8233,
  "\u2581isteri": 8234,
  "\u2581keuangan": 8235,
  "\u2581melintasi": 8236,
  "\u2581menampakkan": 8237,
  "\u2581menyadarinya": 8238,
  "\u2581orbit": 8239,
  "\u2581sekiranya": 8240,
  "\u2581tall": 8241,
  "\u2581Caleb": 8242,
  "\u2581royal": 8243,
  "\u2581Fo": 8244,
  "\u2581Path": 8245,
  "\u2581Spanish": 8246,
  "\u2581mencuci": 8247,
  "\u2581mengikat": 8248,
  "\u2581newspaper": 8249,
  "\u2581surgery": 8250,
  "Okay": 8251,
  "\u2581cameras": 8252,
  "\u2581alert": 8253,
  "\u2581format": 8254,
  "\u2581mengizinkan": 8255,
  "\u2581pekerjaannya": 8256,
  "\u2581seribu": 8257,
  "uni": 8258,
  "\u2581Earl": 8259,
  "\u2581Ganti": 8260,
  "\u2581Ned": 8261,
  "\u2581dibesarkan": 8262,
  "\u2581tangani": 8263,
  "Untuk": 8264,
  "buruk": 8265,
  "pre": 8266,
  "terangan": 8267,
  "\u2581intel": 8268,
  "\u2581officers": 8269,
  "\u2581pemandangan": 8270,
  "\u2581relief": 8271,
  "\u2581shoulder": 8272,
  "\u2581Lucky": 8273,
  "\u2581ilmiah": 8274,
  "\u2581Chu": 8275,
  "\u2581boring": 8276,
  "\u2581brains": 8277,
  "\u2581menghubungkan": 8278,
  "\u2581opposite": 8279,
  "\u2581sync": 8280,
  "\u2581Lucu": 8281,
  "\u2581internal": 8282,
  "\u2581patients": 8283,
  "\u2581putrinya": 8284,
  "\u2581suamimu": 8285,
  "\u2581ketetapan": 8286,
  "Are": 8287,
  "\u2581Sp": 8288,
  "\u2581detektif": 8289,
  "\u2581semula": 8290,
  "cus": 8291,
  "\u2581bala": 8292,
  "\u2581gurun": 8293,
  "\u2581jerk": 8294,
  "\u2581Human": 8295,
  "\u2581average": 8296,
  "\u2581coast": 8297,
  "\u2581larangan": 8298,
  "\u2581pembuat": 8299,
  "\u2581pentingnya": 8300,
  "\u2581sepakat": 8301,
  "\u2581serangga": 8302,
  "\u2581Monroe": 8303,
  "\u2581bahas": 8304,
  "\u2581buying": 8305,
  "\u2581putuskan": 8306,
  "\u2581manajer": 8307,
  "\u2581studio": 8308,
  "\u2581Army": 8309,
  "\u2581Bilang": 8310,
  "\u2581publikasi": 8311,
  "\u2581seized": 8312,
  "\u2581tests": 8313,
  "\u2581Percy": 8314,
  "\u2581Thought": 8315,
  "\u2581\\": 8316,
  "\u2581actual": 8317,
  "Tertawa": 8318,
  "hee": 8319,
  "\u2581Acts": 8320,
  "\u2581chat": 8321,
  "\u2581vehicle": 8322,
  "\u2581appeared": 8323,
  "\u2581menuduh": 8324,
  "\u2581symbol": 8325,
  "\u2581bike": 8326,
  "\u2581kontrol": 8327,
  "tas": 8328,
  "\u2581chain": 8329,
  "\u2581erat": 8330,
  "\u2581Kanada": 8331,
  "\u2581Ruth": 8332,
  "\u2581Thea": 8333,
  "\u2581Unit": 8334,
  "\u2581cadangan": 8335,
  "\u2581info": 8336,
  "\u2581memancing": 8337,
  "\u2581membayarnya": 8338,
  "\u2581mendengarmu": 8339,
  "\u2581Crow": 8340,
  "Ro": 8341,
  "\u2581doin": 8342,
  "\u2581fourth": 8343,
  "\u2581mas": 8344,
  "\u2581menerangkan": 8345,
  "\u2581mengesankan": 8346,
  "\u2581prophecy": 8347,
  "\u2581shared": 8348,
  "\u2581charity": 8349,
  "asan": 8350,
  "\u2581Radio": 8351,
  "\u2581melukai": 8352,
  "\u2581Bri": 8353,
  "\u2581Keparat": 8354,
  "\u2581Sally": 8355,
  "\u2581bat": 8356,
  "\u2581guarantee": 8357,
  "\u2581mula": 8358,
  "\u2581nurse": 8359,
  "\u2581struggle": 8360,
  "\u2581cucu": 8361,
  "ila": 8362,
  "\u2581flag": 8363,
  "\u2581impian": 8364,
  "\u2581menundukkan": 8365,
  "\u2581ooh": 8366,
  "\u2581buahnya": 8367,
  "\u2581menyelamatkanmu": 8368,
  "\u2581populer": 8369,
  "\u2581Enjoy": 8370,
  "key": 8371,
  "row": 8372,
  "\u2581Toby": 8373,
  "UN": 8374,
  "\u2581atom": 8375,
  "\u2581password": 8376,
  "\u2581produced": 8377,
  "\u2581solusi": 8378,
  "PA": 8379,
  "agar": 8380,
  "\u2581Tas": 8381,
  "\u2581dah": 8382,
  "\u2581metode": 8383,
  "\u2581Drive": 8384,
  "\u2581Program": 8385,
  "\u2581kepribadian": 8386,
  "\u2581mematuhi": 8387,
  "\u2581oxygen": 8388,
  "om": 8389,
  "\u2581Daisy": 8390,
  "\u2581Kal": 8391,
  "\u2581eaten": 8392,
  "\u2581hated": 8393,
  "\u2581disampaikan": 8394,
  "\u2581mobilku": 8395,
  "\u2581stands": 8396,
  "\u2581disaster": 8397,
  "\u2581merebut": 8398,
  "ned": 8399,
  "\u2581WHAT": 8400,
  "\u2581pejabat": 8401,
  "\u2581stock": 8402,
  "osis": 8403,
  "sudah": 8404,
  "ties": 8405,
  "\u2581assigned": 8406,
  "\u2581tambang": 8407,
  "\u2581Kir": 8408,
  "\u2581entirely": 8409,
  "\u2581Anybody": 8410,
  "\u2581berkencan": 8411,
  "\u2581culture": 8412,
  "\u2581romantis": 8413,
  "anku": 8414,
  "\u2581remembered": 8415,
  "\u2581Sistem": 8416,
  "\u2581flash": 8417,
  "\u2581Makanan": 8418,
  "\u2581Mighty": 8419,
  "\u2581harinya": 8420,
  "\u2581gi": 8421,
  "\u2581ls": 8422,
  "\u2581repent": 8423,
  "\u2581songs": 8424,
  "TM": 8425,
  "\u2581Martha": 8426,
  "\u2581Membunuh": 8427,
  "\u2581charges": 8428,
  "\u2581ilegal": 8429,
  "\u2581kok": 8430,
  "Tawa": 8431,
  "\u2581Col": 8432,
  "\u2581Pintu": 8433,
  "\u2581Zoe": 8434,
  "\u2581bertingkah": 8435,
  "\u2581naked": 8436,
  "\u2581peti": 8437,
  "\u2581Ly": 8438,
  "\u2581Sand": 8439,
  "\u2581goin": 8440,
  "See": 8441,
  "\u2581Sar": 8442,
  "\u2581insurance": 8443,
  "\u2581lintas": 8444,
  "Lo": 8445,
  "\u2581Tai": 8446,
  "\u2581ditujukan": 8447,
  "\u2581menepati": 8448,
  "anaknya": 8449,
  "\u2581cemburu": 8450,
  "\u2581ignore": 8451,
  "\u2581plants": 8452,
  "\u2581demons": 8453,
  "\u2581pengawasan": 8454,
  "nar": 8455,
  "\u2581Pilihan": 8456,
  "\u2581Pra": 8457,
  "IS": 8458,
  "Tak": 8459,
  "\u2581Sel": 8460,
  "\u2581hah": 8461,
  "\u2581kicked": 8462,
  "\u2581pardon": 8463,
  "ngomong": 8464,
  "\u258117,": 8465,
  "\u2581settled": 8466,
  "AD": 8467,
  "ES": 8468,
  "\u2581bernilai": 8469,
  "\u2581bride": 8470,
[...]
